/* Copyright 2023 The TensorFlow Authors. All Rights Reserved.

Licensed under the Apache License, Version 2.0 (the "License");
you may not use this file except in compliance with the License.
You may obtain a copy of the License at

    http://www.apache.org/licenses/LICENSE-2.0

Unless required by applicable law or agreed to in writing, software
distributed under the License is distributed on an "AS IS" BASIS,
WITHOUT WARRANTIES OR CONDITIONS OF ANY KIND, either express or implied.
See the License for the specific language governing permissions and
limitations under the License.
==============================================================================*/

// This is a standard TensorFlow Lite FlatBuffer model file that has been
// converted into a C data array, so it can be easily compiled into a binary
// for devices that don't have a file system. It was created using the command:
// xxd -i model.tflite > model.cc

#include "micro_features_model.h"

// Keep aligned to 16 bytes for CMSIS
alignas(16) const unsigned char g_model[] = {
  0x1c, 0x00, 0x00, 0x00, 0x54, 0x46, 0x4c, 0x33, 0x14, 0x00, 0x20, 0x00,
  0x1c, 0x00, 0x18, 0x00, 0x14, 0x00, 0x10, 0x00, 0x0c, 0x00, 0x00, 0x00,
  0x08, 0x00, 0x04, 0x00, 0x14, 0x00, 0x00, 0x00, 0x1c, 0x00, 0x00, 0x00,
  0x80, 0x00, 0x00, 0x00, 0xd8, 0x00, 0x00, 0x00, 0x4c, 0x11, 0x00, 0x00,
  0x5c, 0x11, 0x00, 0x00, 0xc8, 0x22, 0x00, 0x00, 0x03, 0x00, 0x00, 0x00,
  0x01, 0x00, 0x00, 0x00, 0x04, 0x00, 0x00, 0x00, 0x9a, 0xeb, 0xff, 0xff,
  0x0c, 0x00, 0x00, 0x00, 0x1c, 0x00, 0x00, 0x00, 0x38, 0x00, 0x00, 0x00,
  0x0f, 0x00, 0x00, 0x00, 0x73, 0x65, 0x72, 0x76, 0x69, 0x6e, 0x67, 0x5f,
  0x64, 0x65, 0x66, 0x61, 0x75, 0x6c, 0x74, 0x00, 0x01, 0x00, 0x00, 0x00,
  0x04, 0x00, 0x00, 0x00, 0x9c, 0xff, 0xff, 0xff, 0x1f, 0x00, 0x00, 0x00,
  0x04, 0x00, 0x00, 0x00, 0x07, 0x00, 0x00, 0x00, 0x64, 0x65, 0x6e, 0x73,
  0x65, 0x5f, 0x31, 0x00, 0x01, 0x00, 0x00, 0x00, 0x04, 0x00, 0x00, 0x00,
  0x6a, 0xee, 0xff, 0xff, 0x04, 0x00, 0x00, 0x00, 0x07, 0x00, 0x00, 0x00,
  0x69, 0x6e, 0x70, 0x75, 0x74, 0x5f, 0x31, 0x00, 0x02, 0x00, 0x00, 0x00,
  0x34, 0x00, 0x00, 0x00, 0x04, 0x00, 0x00, 0x00, 0xdc, 0xff, 0xff, 0xff,
  0x22, 0x00, 0x00, 0x00, 0x04, 0x00, 0x00, 0x00, 0x13, 0x00, 0x00, 0x00,
  0x43, 0x4f, 0x4e, 0x56, 0x45, 0x52, 0x53, 0x49, 0x4f, 0x4e, 0x5f, 0x4d,
  0x45, 0x54, 0x41, 0x44, 0x41, 0x54, 0x41, 0x00, 0x08, 0x00, 0x0c, 0x00,
  0x08, 0x00, 0x04, 0x00, 0x08, 0x00, 0x00, 0x00, 0x21, 0x00, 0x00, 0x00,
  0x04, 0x00, 0x00, 0x00, 0x13, 0x00, 0x00, 0x00, 0x6d, 0x69, 0x6e, 0x5f,
  0x72, 0x75, 0x6e, 0x74, 0x69, 0x6d, 0x65, 0x5f, 0x76, 0x65, 0x72, 0x73,
  0x69, 0x6f, 0x6e, 0x00, 0x23, 0x00, 0x00, 0x00, 0x70, 0x10, 0x00, 0x00,
  0x68, 0x10, 0x00, 0x00, 0x4c, 0x10, 0x00, 0x00, 0xfc, 0x0f, 0x00, 0x00,
  0xe0, 0x0f, 0x00, 0x00, 0xc4, 0x0f, 0x00, 0x00, 0xa8, 0x0f, 0x00, 0x00,
  0x8c, 0x0f, 0x00, 0x00, 0xe0, 0x0e, 0x00, 0x00, 0x90, 0x06, 0x00, 0x00,
  0x40, 0x06, 0x00, 0x00, 0x24, 0x06, 0x00, 0x00, 0x10, 0x06, 0x00, 0x00,
  0xfc, 0x05, 0x00, 0x00, 0xe8, 0x05, 0x00, 0x00, 0xd8, 0x01, 0x00, 0x00,
  0x08, 0x01, 0x00, 0x00, 0x00, 0x01, 0x00, 0x00, 0xf8, 0x00, 0x00, 0x00,
  0xf0, 0x00, 0x00, 0x00, 0xe8, 0x00, 0x00, 0x00, 0xe0, 0x00, 0x00, 0x00,
  0xd8, 0x00, 0x00, 0x00, 0xd0, 0x00, 0x00, 0x00, 0xc8, 0x00, 0x00, 0x00,
  0xc0, 0x00, 0x00, 0x00, 0xb8, 0x00, 0x00, 0x00, 0xb0, 0x00, 0x00, 0x00,
  0xa8, 0x00, 0x00, 0x00, 0xa0, 0x00, 0x00, 0x00, 0x98, 0x00, 0x00, 0x00,
  0x90, 0x00, 0x00, 0x00, 0x88, 0x00, 0x00, 0x00, 0x68, 0x00, 0x00, 0x00,
  0x04, 0x00, 0x00, 0x00, 0x6a, 0xef, 0xff, 0xff, 0x04, 0x00, 0x00, 0x00,
  0x54, 0x00, 0x00, 0x00, 0x0c, 0x00, 0x00, 0x00, 0x08, 0x00, 0x0e, 0x00,
  0x08, 0x00, 0x04, 0x00, 0x08, 0x00, 0x00, 0x00, 0x10, 0x00, 0x00, 0x00,
  0x24, 0x00, 0x00, 0x00, 0x00, 0x00, 0x06, 0x00, 0x08, 0x00, 0x04, 0x00,
  0x06, 0x00, 0x00, 0x00, 0x04, 0x00, 0x00, 0x00, 0x00, 0x00, 0x00, 0x00,
  0x00, 0x00, 0x0a, 0x00, 0x10, 0x00, 0x0c, 0x00, 0x08, 0x00, 0x04, 0x00,
  0x0a, 0x00, 0x00, 0x00, 0x01, 0x00, 0x00, 0x00, 0x02, 0x00, 0x00, 0x00,
  0x04, 0x00, 0x00, 0x00, 0x06, 0x00, 0x00, 0x00, 0x32, 0x2e, 0x31, 0x32,
  0x2e, 0x30, 0x00, 0x00, 0xca, 0xef, 0xff, 0xff, 0x04, 0x00, 0x00, 0x00,
  0x10, 0x00, 0x00, 0x00, 0x31, 0x2e, 0x31, 0x31, 0x2e, 0x30, 0x00, 0x00,
  0x00, 0x00, 0x00, 0x00, 0x00, 0x00, 0x00, 0x00, 0x48, 0xdf, 0xff, 0xff,
  0x4c, 0xdf, 0xff, 0xff, 0x50, 0xdf, 0xff, 0xff, 0x54, 0xdf, 0xff, 0xff,
  0x58, 0xdf, 0xff, 0xff, 0x5c, 0xdf, 0xff, 0xff, 0x60, 0xdf, 0xff, 0xff,
  0x64, 0xdf, 0xff, 0xff, 0x68, 0xdf, 0xff, 0xff, 0x6c, 0xdf, 0xff, 0xff,
  0x70, 0xdf, 0xff, 0xff, 0x74, 0xdf, 0xff, 0xff, 0x78, 0xdf, 0xff, 0xff,
  0x7c, 0xdf, 0xff, 0xff, 0x80, 0xdf, 0xff, 0xff, 0x84, 0xdf, 0xff, 0xff,
  0x26, 0xf0, 0xff, 0xff, 0x04, 0x00, 0x00, 0x00, 0xc0, 0x00, 0x00, 0x00,
  0x71, 0x8c, 0x1d, 0xbe, 0x6b, 0xc3, 0x8c, 0xbe, 0x8c, 0x90, 0x01, 0x3e,
  0xee, 0x0f, 0x89, 0x3d, 0xcf, 0x13, 0x3b, 0x3f, 0x27, 0xa5, 0xd6, 0x3e,
  0xe8, 0xac, 0x4a, 0x3e, 0x48, 0x1b, 0x2a, 0xbe, 0xa4, 0x77, 0xde, 0xbd,
  0x4e, 0xa5, 0xd2, 0xbe, 0x29, 0xf9, 0x39, 0xbf, 0x08, 0xd1, 0x23, 0x3e,
  0x35, 0x33, 0xfa, 0x3e, 0xf5, 0x54, 0xdd, 0xba, 0x0c, 0x22, 0x13, 0xbc,
  0x19, 0x75, 0xbe, 0xbb, 0xfd, 0x7c, 0x5f, 0x3e, 0xd0, 0x5d, 0x12, 0xbd,
  0x60, 0xd6, 0xc6, 0xbc, 0xb6, 0x8c, 0x0c, 0x3e, 0x6c, 0xb6, 0x23, 0xbf,
  0x42, 0x72, 0xd2, 0x3d, 0xa0, 0x20, 0xf3, 0x3d, 0xa8, 0xca, 0x64, 0x3f,
  0x08, 0x72, 0x79, 0xbe, 0x9c, 0x02, 0xc5, 0x3e, 0x9a, 0x58, 0x0c, 0x3f,
  0x29, 0x66, 0x12, 0xbf, 0x8f, 0x4d, 0x44, 0x3e, 0x81, 0x7d, 0xdd, 0xbe,
  0x5d, 0x1a, 0xbd, 0xbe, 0xeb, 0x54, 0x5a, 0x3e, 0x71, 0x03, 0x12, 0xbf,
  0xfd, 0x86, 0x01, 0x3f, 0x64, 0x61, 0xb6, 0xbd, 0xfe, 0xdb, 0xeb, 0x3e,
  0x47, 0xf2, 0xa2, 0xbd, 0x02, 0x76, 0x91, 0x3e, 0x0b, 0xbd, 0x04, 0x3f,
  0x1d, 0xcb, 0xdc, 0xbe, 0xfa, 0x11, 0xc5, 0x3e, 0x0a, 0x8b, 0xb6, 0xbe,
  0x38, 0x73, 0x33, 0x3e, 0xf8, 0xb4, 0x1d, 0x3e, 0x64, 0xfa, 0x30, 0xbe,
  0x68, 0xec, 0x18, 0x3d, 0x4d, 0xd8, 0x65, 0xbe, 0x7c, 0x37, 0x9b, 0x3e,
  0xf2, 0xf0, 0xff, 0xff, 0x04, 0x00, 0x00, 0x00, 0x00, 0x04, 0x00, 0x00,
  0xc0, 0x1a, 0xbc, 0xbd, 0x0a, 0x09, 0x56, 0x3e, 0x6c, 0xc8, 0x90, 0xbb,
  0x0f, 0xa9, 0x50, 0x3e, 0x61, 0xee, 0xe4, 0x3e, 0xe0, 0xa6, 0x66, 0x3e,
  0xaa, 0x19, 0xa7, 0x3d, 0x3f, 0x95, 0x3f, 0xbe, 0xd1, 0xf0, 0xdc, 0x3e,
  0xc2, 0xc5, 0xfe, 0xbd, 0x3e, 0x2c, 0x97, 0x3e, 0x51, 0x76, 0xb7, 0x3e,
  0x36, 0xb0, 0x56, 0xbe, 0x1f, 0x95, 0x10, 0x3e, 0xc3, 0x30, 0x43, 0x3d,
  0xeb, 0x0d, 0xd6, 0x3d, 0x64, 0x09, 0xc8, 0x3d, 0x2d, 0x53, 0xd7, 0x3e,
  0x49, 0x66, 0x8c, 0x3e, 0x36, 0x28, 0x5b, 0x3e, 0xac, 0x51, 0xc4, 0xbe,
  0xbe, 0xd1, 0x94, 0xbe, 0x18, 0x61, 0x66, 0xbd, 0xd9, 0x17, 0xb9, 0xbe,
  0x8a, 0x73, 0xb4, 0xbe, 0x88, 0x63, 0xa7, 0xbd, 0x5c, 0xaa, 0xf1, 0xbd,
  0x29, 0x46, 0x89, 0xbe, 0x05, 0xa3, 0x62, 0xbe, 0x2e, 0xd7, 0x4a, 0xbe,
  0x2c, 0x30, 0xde, 0x3d, 0xc4, 0x03, 0x0f, 0xbe, 0x48, 0xba, 0x8c, 0xbd,
  0xfa, 0x91, 0x1a, 0x3e, 0x00, 0xd3, 0xa8, 0x3b, 0x6c, 0x06, 0xe6, 0xbd,
  0x80, 0xc1, 0x25, 0xbb, 0x78, 0x6d, 0x1d, 0xbd, 0x4c, 0xbc, 0xf2, 0x3d,
  0x8c, 0x92, 0xdc, 0x3d, 0xbc, 0xe3, 0xa3, 0xbe, 0x1c, 0x9f, 0xda, 0xbd,
  0x2c, 0x3a, 0xec, 0x3d, 0xac, 0xdf, 0x95, 0xbe, 0x58, 0xf0, 0x28, 0x3d,
  0xa0, 0x25, 0x98, 0xbe, 0xde, 0xea, 0x04, 0xbe, 0x97, 0x03, 0x9a, 0x3e,
  0x06, 0x35, 0x88, 0x3e, 0x5f, 0x58, 0x93, 0xbd, 0xb4, 0x92, 0xb1, 0x3e,
  0x02, 0x6b, 0x40, 0x3e, 0x4b, 0xe5, 0xa2, 0xbe, 0x64, 0x5e, 0x3b, 0xbe,
  0x7c, 0x0d, 0x32, 0x3e, 0x25, 0x89, 0xa2, 0x3e, 0x8c, 0xff, 0x79, 0xbe,
  0x4b, 0x8c, 0x83, 0xbe, 0x6b, 0xe4, 0xaa, 0xbd, 0x24, 0xee, 0xca, 0xbe,
  0x91, 0x9b, 0x89, 0x3c, 0xf0, 0x33, 0x16, 0xbe, 0xed, 0xd2, 0x8d, 0xbe,
  0x1d, 0x44, 0xa8, 0x3e, 0x3c, 0x26, 0x8a, 0x3e, 0xe9, 0xfe, 0x21, 0x3e,
  0x2e, 0xb7, 0xd4, 0xbd, 0xed, 0xfc, 0x89, 0xbd, 0xf1, 0x25, 0xb8, 0xbe,
  0x75, 0xe2, 0xc4, 0x3e, 0x6d, 0xf5, 0xd6, 0xbe, 0x70, 0xb5, 0x23, 0x3e,
  0xc2, 0xeb, 0x01, 0xbe, 0x5e, 0xfa, 0x28, 0xbe, 0x2b, 0xf0, 0x21, 0x3f,
  0x5c, 0xb1, 0x88, 0x3e, 0x1d, 0x5d, 0xe4, 0xbd, 0xfe, 0x51, 0xb0, 0x3e,
  0x71, 0xf5, 0x0e, 0xbe, 0xdb, 0xc9, 0x2a, 0xbe, 0xa0, 0x18, 0x28, 0x3d,
  0xa7, 0xeb, 0x7a, 0x3e, 0x3b, 0x87, 0xb7, 0x3e, 0x4b, 0x20, 0x91, 0x3e,
  0x9b, 0x7f, 0xf7, 0xbc, 0x5d, 0xa8, 0x8a, 0x3e, 0x07, 0x95, 0x9c, 0xbe,
  0x5c, 0xfa, 0x02, 0xbe, 0x2d, 0xe5, 0x35, 0x3d, 0xf6, 0x7e, 0x13, 0x3e,
  0xb3, 0x53, 0x0c, 0xbe, 0x31, 0x52, 0x3e, 0xbe, 0x1c, 0x34, 0xc9, 0x3e,
  0xf3, 0xf3, 0x97, 0xbe, 0xdc, 0x72, 0xc1, 0x3e, 0x67, 0x0e, 0xc0, 0xbe,
  0x6e, 0x57, 0xc0, 0xbe, 0xea, 0xf3, 0x69, 0x3e, 0xf2, 0xcb, 0xa8, 0xbe,
  0x80, 0x03, 0x84, 0xbd, 0x32, 0xca, 0x1f, 0x3e, 0x64, 0x49, 0xa7, 0xbe,
  0xc8, 0xf0, 0xba, 0xbd, 0x5a, 0xef, 0x1b, 0x3e, 0xb0, 0x7e, 0xdd, 0xbe,
  0xa4, 0x66, 0xda, 0x3d, 0xfc, 0x8c, 0xba, 0xbe, 0xd3, 0x85, 0x98, 0xbe,
  0x18, 0x41, 0x12, 0xbd, 0xcd, 0xab, 0x82, 0xbe, 0x59, 0x2b, 0xb1, 0xbe,
  0x81, 0x7b, 0x81, 0x3e, 0x86, 0xf7, 0x44, 0xbd, 0x64, 0x80, 0x77, 0x3d,
  0xfa, 0x30, 0x1c, 0xbb, 0x82, 0xb0, 0x39, 0xbf, 0x32, 0x77, 0xcd, 0xbc,
  0x92, 0x52, 0xe9, 0x3e, 0x4d, 0xab, 0xae, 0x3d, 0x45, 0xea, 0xa4, 0xbe,
  0x63, 0xc4, 0xf3, 0x3e, 0xa0, 0xcc, 0x0d, 0x3e, 0x98, 0xdc, 0x95, 0xbe,
  0xbd, 0x49, 0x15, 0xbe, 0xcf, 0x82, 0x60, 0xbe, 0x32, 0x3c, 0xbd, 0xbe,
  0x4a, 0xdc, 0x83, 0x3d, 0xa0, 0x94, 0x99, 0x3d, 0x71, 0xf5, 0xe1, 0x3d,
  0xe1, 0x70, 0xc5, 0xbe, 0x53, 0xc7, 0xb1, 0x3e, 0xcc, 0xe5, 0x71, 0x3e,
  0xa2, 0xaa, 0x82, 0xbe, 0x78, 0xf9, 0x22, 0x3e, 0xe1, 0x10, 0x18, 0xbe,
  0x40, 0xa6, 0x24, 0x3d, 0x3d, 0x68, 0x51, 0xbd, 0x00, 0xed, 0xae, 0x3e,
  0x2f, 0xdf, 0x01, 0xbe, 0xf3, 0x5b, 0x9e, 0x3e, 0x54, 0x1d, 0xa4, 0xbe,
  0xd4, 0x2f, 0x51, 0x3d, 0xc4, 0xb3, 0xbf, 0x3e, 0x32, 0x27, 0xa6, 0xbe,
  0xde, 0x8f, 0x56, 0x3e, 0x9e, 0x53, 0x62, 0xbe, 0x29, 0x40, 0xa0, 0x3e,
  0x5c, 0x34, 0xe5, 0xbe, 0x2a, 0x75, 0x86, 0x3e, 0x7a, 0xd3, 0x3e, 0x3d,
  0x9e, 0xbb, 0x68, 0xbe, 0xff, 0xc5, 0xb8, 0x3e, 0xd3, 0x21, 0x0d, 0x3d,
  0x38, 0xab, 0xd5, 0x3e, 0x89, 0xbf, 0x9d, 0xbc, 0x02, 0xb0, 0x2e, 0xbe,
  0x71, 0x36, 0xde, 0xbd, 0xe1, 0x78, 0xc6, 0x3e, 0x14, 0xb1, 0x97, 0x3e,
  0x74, 0x60, 0xd0, 0xbe, 0xf8, 0xcf, 0xa0, 0x3e, 0xa3, 0x18, 0x8a, 0x3e,
  0xe1, 0x48, 0xaa, 0xbe, 0xce, 0xfa, 0x89, 0x3e, 0x16, 0x3a, 0x73, 0xbd,
  0x0c, 0x84, 0x5f, 0x3d, 0x68, 0xb2, 0xe8, 0x3e, 0x72, 0xf6, 0x97, 0xbe,
  0x6d, 0xb0, 0x20, 0x3e, 0xc1, 0x07, 0x97, 0xbd, 0x25, 0x66, 0xc1, 0xbe,
  0x57, 0x1b, 0xe5, 0xbe, 0xcf, 0x85, 0xd4, 0x3e, 0x1e, 0x2e, 0x7a, 0xbd,
  0xe7, 0x0a, 0x99, 0x3c, 0x26, 0x90, 0xd4, 0xbe, 0xf2, 0xcf, 0xe3, 0x3e,
  0xad, 0xd3, 0x68, 0xbe, 0x98, 0xc1, 0xda, 0x3e, 0xe4, 0xff, 0x82, 0x3e,
  0x99, 0xfe, 0x64, 0xbe, 0xe4, 0x72, 0xea, 0xbd, 0x1f, 0x7d, 0x9c, 0xbd,
  0x64, 0xfe, 0x9a, 0x3e, 0x19, 0x51, 0x9a, 0xbe, 0x6a, 0x4b, 0xd5, 0x3d,
  0xaf, 0x94, 0xa5, 0xbe, 0x91, 0x25, 0x26, 0x3e, 0x45, 0x68, 0xd3, 0x3e,
  0x66, 0xf4, 0x4d, 0xbe, 0xbc, 0x08, 0xad, 0xbe, 0x1c, 0xb4, 0x87, 0xbe,
  0xfd, 0xd3, 0xff, 0x3b, 0xd1, 0xfc, 0x55, 0x3e, 0x50, 0x4a, 0x45, 0x3e,
  0x45, 0xb5, 0x9c, 0xbe, 0xe2, 0xe3, 0x19, 0xbe, 0x06, 0x93, 0xd3, 0x3d,
  0x0b, 0x9b, 0x38, 0xbd, 0x98, 0x1e, 0x0d, 0xbd, 0xd2, 0x82, 0x29, 0xbd,
  0x4a, 0x0d, 0xa0, 0xbe, 0x77, 0x40, 0xb1, 0x3e, 0xca, 0x0e, 0x84, 0x3d,
  0xde, 0x08, 0xd2, 0x3e, 0xb8, 0x67, 0x9a, 0x3e, 0xf7, 0x6d, 0x90, 0x3b,
  0x40, 0x9e, 0x8e, 0x3e, 0x3f, 0x73, 0xce, 0x3e, 0x84, 0x07, 0xf7, 0xbd,
  0x00, 0x6e, 0x2d, 0xbd, 0xd1, 0xf4, 0xa1, 0xbe, 0xbc, 0x63, 0x9d, 0xbe,
  0x15, 0x3c, 0xc0, 0x3e, 0x93, 0x78, 0x6b, 0xbd, 0x19, 0xa0, 0xa3, 0x3e,
  0xf9, 0x4d, 0x21, 0x3d, 0xb6, 0xf5, 0xa3, 0x3e, 0x0d, 0x16, 0xfc, 0x3c,
  0x7b, 0xad, 0x19, 0x3d, 0xc3, 0x16, 0x50, 0x3e, 0x07, 0x88, 0x42, 0xbd,
  0x88, 0xc3, 0x3d, 0x3d, 0x83, 0x40, 0xf1, 0xbd, 0x0b, 0x00, 0xcf, 0x3d,
  0x80, 0xa6, 0xbc, 0xbe, 0x0f, 0x14, 0x9b, 0xbe, 0xc8, 0xe1, 0x92, 0xbe,
  0x75, 0x3e, 0x91, 0xbd, 0x4e, 0x07, 0xf3, 0x3d, 0x05, 0x22, 0x10, 0xbd,
  0xf8, 0x82, 0x28, 0x3e, 0x10, 0x58, 0xdd, 0x3e, 0x33, 0x34, 0xb1, 0x3e,
  0xca, 0xef, 0x23, 0x3e, 0x23, 0xf1, 0x67, 0xbe, 0x61, 0xa5, 0xbc, 0x3e,
  0x00, 0x0d, 0x8d, 0xbe, 0x3a, 0x2b, 0x74, 0xbe, 0xe9, 0xae, 0xf3, 0x3d,
  0x1f, 0xa8, 0x5f, 0x3e, 0x33, 0xda, 0x53, 0xbe, 0x54, 0xa0, 0xda, 0xbe,
  0x51, 0x05, 0x3b, 0xbe, 0xce, 0x4d, 0x1e, 0xbe, 0x1a, 0xe1, 0x5f, 0x3e,
  0x7c, 0x00, 0xc9, 0x3e, 0x8c, 0x12, 0x99, 0x3e, 0xb6, 0x4b, 0xc8, 0x3e,
  0x8c, 0x93, 0x2e, 0xbe, 0x9c, 0x55, 0x13, 0x3e, 0x8d, 0x10, 0x52, 0xbe,
  0x70, 0x2d, 0x81, 0x3e, 0x12, 0xc5, 0x45, 0x3e, 0x3f, 0x7d, 0xa0, 0x3d,
  0x73, 0x30, 0xef, 0xbd, 0xfe, 0xf4, 0xff, 0xff, 0x04, 0x00, 0x00, 0x00,
  0x04, 0x00, 0x00, 0x00, 0xfd, 0xff, 0xff, 0xff, 0x0e, 0xf5, 0xff, 0xff,
  0x04, 0x00, 0x00, 0x00, 0x04, 0x00, 0x00, 0x00, 0x01, 0x00, 0x00, 0x00,
  0x1e, 0xf5, 0xff, 0xff, 0x04, 0x00, 0x00, 0x00, 0x04, 0x00, 0x00, 0x00,
  0x02, 0x00, 0x00, 0x00, 0x2e, 0xf5, 0xff, 0xff, 0x04, 0x00, 0x00, 0x00,
  0x0c, 0x00, 0x00, 0x00, 0x28, 0xdb, 0x94, 0xbb, 0x19, 0xff, 0x16, 0xbc,
  0x7d, 0xfb, 0x57, 0xbd, 0x46, 0xf5, 0xff, 0xff, 0x04, 0x00, 0x00, 0x00,
  0x40, 0x00, 0x00, 0x00, 0x2c, 0x48, 0xfb, 0x3c, 0x00, 0x00, 0x00, 0x00,
  0x00, 0x00, 0x00, 0x00, 0xed, 0x61, 0x1c, 0xbc, 0x4a, 0x2e, 0x2b, 0x3d,
  0x4a, 0xe1, 0x3c, 0xbc, 0x00, 0x00, 0x00, 0x00, 0xc4, 0xc1, 0x9d, 0xbc,
  0x91, 0x9b, 0x00, 0xbd, 0x42, 0x46, 0x81, 0x3c, 0xc1, 0x79, 0xb2, 0xbc,
  0xe0, 0x0c, 0x09, 0xbc, 0xba, 0x77, 0xc0, 0x3b, 0x10, 0x92, 0xaf, 0x3b,
  0xad, 0xe8, 0x33, 0x3d, 0x7c, 0x69, 0xb7, 0xbd, 0x92, 0xf5, 0xff, 0xff,
  0x04, 0x00, 0x00, 0x00, 0x40, 0x08, 0x00, 0x00, 0x14, 0xa3, 0x6d, 0xbd,
  0x2f, 0xd9, 0x2c, 0x3e, 0x20, 0x02, 0x5a, 0xbc, 0x00, 0x05, 0x09, 0x3a,
  0xdc, 0x6b, 0x14, 0xbe, 0x7a, 0xbe, 0xa2, 0xbd, 0x7b, 0x80, 0x08, 0x39,
  0xcd, 0x22, 0x20, 0xbe, 0x75, 0x4f, 0xe9, 0xbc, 0xd5, 0x52, 0x51, 0xbe,
  0xce, 0x4d, 0x4f, 0xbe, 0xa7, 0x12, 0xea, 0xbd, 0x58, 0x7a, 0x0b, 0xbe,
  0x77, 0xdc, 0x1c, 0x3e, 0xa5, 0x8f, 0xfc, 0x3d, 0x86, 0xf2, 0x1e, 0x3e,
  0xa4, 0x7f, 0x0b, 0x3e, 0xa6, 0xfe, 0x81, 0x3c, 0x38, 0x74, 0x33, 0x3e,
  0x6c, 0x4b, 0x92, 0xbd, 0xd8, 0x58, 0xb4, 0xbb, 0x72, 0x2f, 0x5b, 0x3e,
  0x17, 0x6a, 0xe9, 0x3d, 0x3c, 0xcb, 0x01, 0x3e, 0xd8, 0x2b, 0x1d, 0x3c,
  0x63, 0xf3, 0xa6, 0xbc, 0x1b, 0xfd, 0xe9, 0xbd, 0x8d, 0x14, 0x99, 0xbc,
  0x84, 0xbd, 0x23, 0x3d, 0x25, 0xbf, 0xbe, 0x3c, 0x1c, 0x97, 0xc7, 0xbd,
  0x49, 0xc2, 0x01, 0xbd, 0x6c, 0x40, 0x3c, 0xbc, 0x61, 0xa8, 0x12, 0x3e,
  0x40, 0x65, 0x9d, 0x3c, 0xf4, 0x36, 0xcd, 0xbc, 0xbd, 0x52, 0x0c, 0xbe,
  0x7b, 0x48, 0x06, 0xbe, 0x37, 0xce, 0x0d, 0x3e, 0x70, 0xdb, 0x39, 0xba,
  0xf9, 0xfd, 0x2a, 0x3d, 0x00, 0xf5, 0xad, 0xbc, 0x29, 0x66, 0xe4, 0xbd,
  0x28, 0x4e, 0x2a, 0xbd, 0x21, 0x27, 0xe7, 0x3c, 0x99, 0x94, 0x83, 0x3d,
  0xb5, 0x57, 0xd4, 0xbd, 0x8f, 0x0a, 0x75, 0x3d, 0xd4, 0x89, 0x11, 0xbe,
  0xf8, 0x48, 0x36, 0xbd, 0x84, 0x03, 0x73, 0xbd, 0xf6, 0xe6, 0x37, 0xbe,
  0x31, 0xf4, 0x8e, 0x3d, 0xed, 0x5b, 0xea, 0x3d, 0x1f, 0xd5, 0x09, 0x3e,
  0x80, 0xc1, 0x30, 0x3e, 0x34, 0xba, 0xe5, 0xbd, 0x8f, 0x6a, 0xc4, 0xbd,
  0x1f, 0x36, 0xe9, 0x3b, 0x40, 0x00, 0xe1, 0xbd, 0xc6, 0x99, 0x1f, 0xbe,
  0x6c, 0xeb, 0x50, 0x3e, 0x8b, 0x3b, 0x9a, 0x3d, 0xb6, 0xe3, 0x1e, 0xbd,
  0x2a, 0x9b, 0x2f, 0xbd, 0x34, 0xff, 0x3c, 0xbc, 0xb3, 0x93, 0xa4, 0x3d,
  0xaf, 0x19, 0x8b, 0xbd, 0x71, 0xad, 0x5c, 0xbd, 0x1f, 0x36, 0xc3, 0xbc,
  0x0e, 0x23, 0x74, 0xbd, 0xf1, 0x4c, 0x03, 0xbd, 0x96, 0x2b, 0x2e, 0xbe,
  0x90, 0x94, 0x8e, 0xbd, 0x29, 0x45, 0x2b, 0x3d, 0xf1, 0x06, 0x4a, 0xbe,
  0x8f, 0x57, 0x04, 0xbd, 0xfb, 0xaf, 0x4a, 0x3d, 0x34, 0x05, 0x5e, 0x3d,
  0xf3, 0x14, 0x40, 0xbd, 0xff, 0xaa, 0x0a, 0x3e, 0xa8, 0x5d, 0x1a, 0xbd,
  0xcb, 0x9b, 0x7c, 0x3d, 0x40, 0xef, 0xba, 0xbd, 0x36, 0x49, 0x9d, 0xbd,
  0x6b, 0x03, 0xdd, 0x3d, 0xc7, 0x01, 0x12, 0xbd, 0xdd, 0x1d, 0x03, 0x3e,
  0x2d, 0x9a, 0x1e, 0xbe, 0xd4, 0x40, 0x3e, 0xbd, 0xdb, 0xa6, 0xb1, 0x3d,
  0x27, 0x36, 0x88, 0xbd, 0x36, 0x54, 0x9f, 0xbd, 0xd1, 0x9c, 0x18, 0x3e,
  0x48, 0x5b, 0x87, 0x3d, 0xfb, 0x9f, 0x73, 0xbe, 0x8d, 0xcd, 0x03, 0x3e,
  0x33, 0x8e, 0xa1, 0x3d, 0xab, 0x20, 0xc6, 0x3d, 0x42, 0x3f, 0x35, 0xbe,
  0x3e, 0x39, 0x4b, 0xbe, 0xd1, 0x35, 0xe5, 0x3c, 0xaf, 0x8e, 0xf2, 0xbd,
  0x36, 0x9c, 0x8e, 0x3c, 0x6c, 0xf9, 0x0f, 0xbe, 0x31, 0x1e, 0x19, 0xbe,
  0xdb, 0xd1, 0x89, 0xbb, 0x60, 0x07, 0x67, 0xbd, 0x85, 0x5e, 0x1d, 0xbe,
  0x77, 0x8c, 0xbb, 0x3d, 0x83, 0x2d, 0x45, 0x3d, 0x51, 0x89, 0x33, 0x3d,
  0xef, 0x25, 0x25, 0xbe, 0xfe, 0x28, 0xdf, 0x3d, 0x3d, 0x99, 0x8c, 0x3d,
  0x21, 0x04, 0xfe, 0x3c, 0x18, 0x1d, 0xc2, 0x3a, 0x53, 0xff, 0x02, 0xbd,
  0x78, 0xdb, 0xbc, 0xbd, 0xca, 0x09, 0x96, 0xbd, 0x1d, 0xd1, 0xf2, 0xbd,
  0x65, 0xa8, 0x2a, 0xbe, 0xd6, 0x58, 0xf2, 0xbd, 0xc7, 0x74, 0xb3, 0xbd,
  0x15, 0x40, 0x48, 0xbd, 0x6a, 0x99, 0xcf, 0x3b, 0x5e, 0xc8, 0xda, 0x3d,
  0x07, 0x4d, 0x77, 0x3d, 0xb2, 0xc9, 0xd6, 0xbc, 0x8e, 0x39, 0x3d, 0x3b,
  0xd7, 0x90, 0x1a, 0x3e, 0x57, 0xc6, 0x1c, 0xbe, 0x73, 0x92, 0xd6, 0x3d,
  0xb4, 0x3c, 0x13, 0xbe, 0xd0, 0x16, 0x9b, 0x3d, 0xe6, 0x6e, 0xef, 0x3d,
  0x02, 0xde, 0xe2, 0xbd, 0x39, 0x0c, 0xd6, 0x3d, 0xdf, 0x7e, 0x7e, 0x3d,
  0x21, 0x87, 0x6c, 0xbe, 0x81, 0x57, 0xfd, 0x3d, 0x79, 0xad, 0xd8, 0xbd,
  0x63, 0xd5, 0x52, 0x3c, 0x03, 0x0f, 0xae, 0x3b, 0xd4, 0x90, 0x14, 0xbb,
  0xfa, 0x7f, 0x04, 0xbc, 0x6b, 0xee, 0xe2, 0xbd, 0xc1, 0x7b, 0xd0, 0x3d,
  0xff, 0x4f, 0x10, 0xbc, 0x51, 0xe3, 0x0d, 0xbd, 0x84, 0xc5, 0xf7, 0x3d,
  0x71, 0x00, 0x2a, 0xbe, 0x54, 0xd1, 0xd6, 0xbd, 0xfa, 0x31, 0x20, 0xbe,
  0x1c, 0x1f, 0x75, 0x3d, 0xbf, 0x06, 0x6f, 0x3b, 0x93, 0xf4, 0x90, 0x3d,
  0xf2, 0xe9, 0x92, 0x3d, 0x3f, 0x69, 0x8d, 0x3d, 0x43, 0xe5, 0xe1, 0x3c,
  0xd8, 0xcb, 0x53, 0xbe, 0xfd, 0xbb, 0x3c, 0x3e, 0x69, 0x86, 0x15, 0x3e,
  0x19, 0x5a, 0xc1, 0xbd, 0x75, 0xf6, 0x33, 0x3e, 0xb5, 0x00, 0x81, 0xbe,
  0xb1, 0xb8, 0x68, 0xbd, 0x89, 0x47, 0xc0, 0xbe, 0xbe, 0x6a, 0xfe, 0xbd,
  0xc2, 0x7f, 0x35, 0x3d, 0x97, 0x37, 0x26, 0xbd, 0x90, 0x67, 0x04, 0xbe,
  0x24, 0xa2, 0x2f, 0xbc, 0xa1, 0x58, 0x08, 0xbe, 0xe8, 0xd8, 0xc6, 0xbc,
  0x2a, 0xd5, 0xb0, 0xbe, 0xa1, 0x64, 0x0f, 0x3d, 0x7f, 0xd6, 0xd1, 0xbc,
  0x2f, 0x26, 0xc0, 0x3d, 0x49, 0x8e, 0x8c, 0xbc, 0x03, 0xa6, 0x09, 0x3e,
  0x30, 0x4e, 0x03, 0x3e, 0x2d, 0x44, 0xe2, 0x3c, 0xe9, 0xaa, 0x08, 0xbd,
  0x34, 0xed, 0xb0, 0x3d, 0xe4, 0xa4, 0x2f, 0xbe, 0x39, 0xb0, 0x32, 0xbe,
  0xb1, 0x50, 0xe6, 0xbd, 0x1a, 0x96, 0x9e, 0x3d, 0x4b, 0x76, 0x42, 0x3e,
  0x86, 0xcf, 0x8d, 0x3c, 0x32, 0xc2, 0xf0, 0xbd, 0x71, 0xc4, 0x2c, 0xbe,
  0xe2, 0xf6, 0x70, 0x3e, 0xf0, 0x60, 0x15, 0x3e, 0x42, 0x73, 0x8a, 0xbd,
  0xb4, 0x20, 0xa6, 0x3e, 0xde, 0x81, 0x6e, 0xbe, 0xd1, 0x9e, 0xd1, 0x3d,
  0x5a, 0x8c, 0x95, 0x3d, 0xfa, 0x40, 0x8a, 0x3d, 0x5c, 0x3c, 0x0d, 0x3e,
  0x5f, 0x18, 0x0b, 0xbd, 0x03, 0x9b, 0x51, 0xbe, 0x56, 0x7c, 0xc6, 0xbd,
  0x76, 0x02, 0x1a, 0x3e, 0x48, 0x75, 0xf6, 0xbd, 0xac, 0x2a, 0x06, 0x3e,
  0x43, 0xad, 0x81, 0xbb, 0x40, 0x98, 0x0d, 0x3e, 0x21, 0x07, 0x0e, 0xbe,
  0x07, 0xc9, 0x1b, 0xbe, 0x3c, 0x95, 0x34, 0xbe, 0xc5, 0x72, 0xd9, 0x3d,
  0x7a, 0x1c, 0x2b, 0x3e, 0xb9, 0x36, 0x0d, 0x3e, 0x77, 0x64, 0x36, 0xbe,
  0xd0, 0xd2, 0x81, 0xbd, 0x10, 0x7b, 0x71, 0xbe, 0xf6, 0x32, 0x0d, 0x3e,
  0xdc, 0x58, 0x5c, 0xbe, 0xb1, 0x48, 0xf3, 0x3c, 0x44, 0x46, 0x0a, 0xbe,
  0x46, 0xa5, 0x5b, 0xbe, 0x83, 0x40, 0x0d, 0x3d, 0x85, 0x0c, 0x01, 0x3e,
  0xa6, 0xdd, 0xf8, 0x3d, 0x62, 0x3f, 0x90, 0x3e, 0x9a, 0x9e, 0x63, 0xbe,
  0xe3, 0xc8, 0xdd, 0xbd, 0x9a, 0x0f, 0xde, 0x3e, 0xca, 0x85, 0x54, 0xbc,
  0x77, 0x7a, 0xcc, 0x3d, 0x8e, 0x11, 0x1c, 0x3e, 0x35, 0x89, 0x10, 0xbe,
  0xa1, 0xe9, 0x0d, 0x3e, 0x4a, 0xf6, 0xbb, 0x3d, 0x15, 0x78, 0xe7, 0xbd,
  0xf5, 0x75, 0xd1, 0x3d, 0x87, 0x9e, 0xf3, 0xbd, 0x85, 0x41, 0xe7, 0x3d,
  0xcb, 0x66, 0x1f, 0x3e, 0xda, 0x02, 0x1a, 0x3e, 0x08, 0x60, 0xd5, 0x3b,
  0x84, 0x5f, 0x02, 0x3e, 0x88, 0xf8, 0xda, 0xbd, 0x41, 0x59, 0xdf, 0x3c,
  0xd6, 0xde, 0xb9, 0xbd, 0xd5, 0x82, 0x81, 0xbc, 0xb7, 0x46, 0xd8, 0xbd,
  0xcd, 0xfc, 0x3d, 0xbc, 0xa6, 0x37, 0xfb, 0x3c, 0x23, 0xe0, 0x2f, 0xbe,
  0xc9, 0x13, 0x48, 0x3e, 0x87, 0x41, 0x21, 0xbd, 0x95, 0x18, 0x0d, 0x3e,
  0xc6, 0x9d, 0x85, 0x3e, 0xc1, 0x50, 0x05, 0xbe, 0x53, 0x0e, 0xf9, 0xbd,
  0x0e, 0x4c, 0x2e, 0x3c, 0xb0, 0x27, 0x8d, 0xbe, 0x9c, 0x52, 0xbd, 0x3d,
  0xaf, 0x69, 0x7f, 0x3a, 0x97, 0x4f, 0xc9, 0xbe, 0xbe, 0xb8, 0x8e, 0x3d,
  0xdf, 0xb1, 0x1b, 0x3e, 0xef, 0x97, 0x8c, 0x3e, 0xe6, 0xff, 0x06, 0xbe,
  0x38, 0xa1, 0xe4, 0xbd, 0xed, 0x7c, 0x1e, 0xbe, 0x30, 0x2e, 0xa5, 0x3e,
  0x50, 0xfe, 0x1f, 0xbe, 0x4e, 0xed, 0x33, 0xbe, 0xb1, 0x62, 0x48, 0x3e,
  0xb0, 0x1c, 0x2e, 0xbe, 0x0e, 0xdf, 0xac, 0xbc, 0xd2, 0x5f, 0xad, 0xbd,
  0x63, 0xd6, 0x86, 0x3d, 0x02, 0x91, 0x4e, 0x3d, 0x45, 0x53, 0x0a, 0x3e,
  0xf9, 0xd7, 0x35, 0x3d, 0x74, 0xd5, 0xe5, 0xbd, 0x76, 0x08, 0xac, 0x3d,
  0xd5, 0xdb, 0xd3, 0x3d, 0x40, 0xee, 0x85, 0x3d, 0x35, 0x0a, 0xfe, 0xbc,
  0x11, 0x5b, 0x11, 0x3e, 0x7b, 0x40, 0x03, 0xbd, 0x36, 0xc0, 0x9d, 0xbd,
  0x66, 0xe1, 0x21, 0x3e, 0xe9, 0xe4, 0xff, 0x3c, 0x7c, 0x56, 0xb4, 0x3d,
  0xc3, 0x9e, 0xe9, 0x3d, 0x61, 0xbf, 0x23, 0x3d, 0x8d, 0x95, 0x9d, 0x3c,
  0x61, 0x08, 0x06, 0x3b, 0xf4, 0x0d, 0x13, 0x3e, 0x64, 0x0c, 0xef, 0x3d,
  0xd1, 0xc6, 0x06, 0x3e, 0x40, 0xf1, 0x82, 0xbc, 0xf6, 0xf0, 0x93, 0x3d,
  0x05, 0x2f, 0xab, 0xbe, 0xf3, 0xbf, 0x26, 0x3e, 0x16, 0x11, 0xaa, 0xbc,
  0xe3, 0x19, 0x0f, 0xbe, 0xd9, 0xff, 0x08, 0x3d, 0x92, 0xc1, 0x29, 0x3e,
  0xdc, 0x90, 0x95, 0x3d, 0xa2, 0xef, 0x80, 0x3d, 0x75, 0x86, 0xcd, 0x3d,
  0xda, 0x00, 0xee, 0x3b, 0xa6, 0xa6, 0xdf, 0xbd, 0xec, 0x11, 0x82, 0xbd,
  0xfb, 0xee, 0x08, 0x3e, 0xb6, 0x6e, 0x85, 0x3d, 0x69, 0xcf, 0x0d, 0xbe,
  0xae, 0xac, 0xfd, 0x3d, 0x33, 0xf0, 0xb2, 0xbc, 0x1b, 0x08, 0x31, 0xbe,
  0x4f, 0x53, 0xd9, 0xbd, 0x43, 0x2c, 0x36, 0x3d, 0x06, 0x03, 0xe3, 0xbc,
  0x61, 0xfb, 0xaf, 0x3d, 0xf0, 0xdd, 0x8f, 0x3c, 0x50, 0x1e, 0xcd, 0x3d,
  0xf3, 0x87, 0x4f, 0xbc, 0xa7, 0x71, 0x20, 0xbd, 0xf3, 0x12, 0x60, 0xbe,
  0xdd, 0x17, 0xbc, 0xbd, 0xf8, 0x5e, 0xf6, 0x3c, 0xc6, 0x55, 0x16, 0x3e,
  0x53, 0xb9, 0x0f, 0x3d, 0x57, 0x45, 0x23, 0xbc, 0x75, 0x1b, 0x12, 0x3d,
  0x86, 0x96, 0xe7, 0xbd, 0x38, 0xa8, 0x81, 0x3e, 0xac, 0x3f, 0xc6, 0xbd,
  0x5e, 0x6f, 0x04, 0xbe, 0xa5, 0x72, 0xf0, 0x3d, 0xca, 0xdf, 0xaf, 0x3c,
  0x9c, 0xac, 0xf1, 0xbd, 0x39, 0x0d, 0x4e, 0x3e, 0xad, 0x02, 0x3f, 0xbe,
  0x4b, 0x0f, 0x9a, 0x3d, 0x6f, 0xa2, 0xd2, 0xbc, 0xe9, 0x1a, 0xbf, 0x3d,
  0x5c, 0x6e, 0x43, 0xbc, 0x2a, 0xd4, 0x64, 0xbd, 0xb5, 0xd3, 0x5f, 0xbe,
  0x80, 0xb5, 0x4f, 0xbe, 0x0e, 0xa7, 0xa3, 0xbd, 0xcc, 0x0d, 0x50, 0xbc,
  0x30, 0x29, 0xde, 0xbd, 0x38, 0x8d, 0xcf, 0xbc, 0x4b, 0x3e, 0xbc, 0xbd,
  0x68, 0x94, 0x50, 0xbe, 0xfa, 0x66, 0xde, 0x3d, 0xb9, 0x17, 0x07, 0xbe,
  0xa4, 0x2a, 0xf1, 0xbd, 0x40, 0xa3, 0xd3, 0xbc, 0xe8, 0x74, 0x8d, 0xbd,
  0x61, 0x2b, 0x8e, 0xbe, 0x80, 0xdf, 0x86, 0x3b, 0x95, 0xff, 0x28, 0xbd,
  0xd1, 0xc3, 0x88, 0x3d, 0xf9, 0xdc, 0x26, 0xbd, 0x93, 0xc5, 0x2a, 0x3e,
  0xb3, 0x1a, 0x11, 0xbd, 0x4f, 0x84, 0x44, 0x3d, 0xd2, 0xed, 0xb5, 0xbd,
  0xaf, 0x56, 0x3d, 0x3d, 0x97, 0x7f, 0x5b, 0xbc, 0x19, 0x30, 0xa8, 0x3d,
  0x52, 0x84, 0x42, 0xbe, 0x4a, 0xef, 0xe7, 0x3d, 0x1f, 0xfc, 0x00, 0x3e,
  0x4c, 0xea, 0xc8, 0xbd, 0x5b, 0xa2, 0x99, 0x3d, 0xd4, 0x6a, 0x91, 0xbd,
  0x58, 0x84, 0x07, 0x3e, 0x0d, 0x02, 0xd3, 0xbd, 0xbc, 0x60, 0x19, 0x3d,
  0xcf, 0x5f, 0xbb, 0x3c, 0xfc, 0x0a, 0xf1, 0xbd, 0x1e, 0xd0, 0xc5, 0xbd,
  0xbc, 0xb5, 0xb1, 0xbd, 0xb8, 0x44, 0x56, 0x3e, 0xa8, 0x1b, 0xf5, 0xbd,
  0x4c, 0x3c, 0xce, 0xbd, 0xf4, 0xcc, 0xec, 0xbd, 0xec, 0xa8, 0x9f, 0xbc,
  0x67, 0x40, 0xc0, 0x3d, 0xe4, 0x1b, 0x51, 0x3e, 0x90, 0x25, 0x2e, 0xbe,
  0x6f, 0x31, 0x9e, 0xbd, 0x72, 0x4a, 0xca, 0xbe, 0x7e, 0x56, 0xb8, 0xbd,
  0xb7, 0xe7, 0xb6, 0xbc, 0x41, 0xd8, 0x3a, 0xbe, 0x99, 0x17, 0xbf, 0xbd,
  0xc8, 0x30, 0x6f, 0x3b, 0xa7, 0xb2, 0x1d, 0x3d, 0xd4, 0xa4, 0xbf, 0xbd,
  0x0f, 0x63, 0x29, 0x3e, 0xc6, 0x6e, 0xb9, 0x3d, 0x99, 0x67, 0xe8, 0x3c,
  0xf2, 0x10, 0x82, 0xbc, 0x66, 0x0e, 0x21, 0x3d, 0x29, 0xff, 0x32, 0x3e,
  0x28, 0x85, 0x0c, 0x3e, 0x36, 0xd1, 0xc0, 0xbc, 0x27, 0xc8, 0x3d, 0xbe,
  0x39, 0xcd, 0xa5, 0x3d, 0x1e, 0x44, 0x52, 0x3d, 0xe4, 0xf7, 0x5a, 0x3e,
  0x54, 0x52, 0xb3, 0xbd, 0xf7, 0x51, 0x38, 0xbe, 0x14, 0x04, 0xea, 0xbd,
  0xdf, 0x96, 0x96, 0xbd, 0x03, 0x4b, 0xe6, 0xbd, 0x93, 0x50, 0x65, 0xbd,
  0x15, 0xa1, 0xed, 0xbd, 0xf6, 0xa7, 0x47, 0x3d, 0x14, 0x29, 0x88, 0xbd,
  0x84, 0xaa, 0x52, 0x3d, 0xf4, 0x00, 0xc6, 0xbd, 0xb3, 0x5d, 0xa8, 0xbb,
  0x78, 0xbb, 0x03, 0xbd, 0xfc, 0x38, 0x55, 0x3c, 0x73, 0xf4, 0xaa, 0x3d,
  0x60, 0x83, 0x79, 0x3c, 0x1b, 0x8a, 0xea, 0xbc, 0x45, 0x44, 0x17, 0xbe,
  0xf6, 0x17, 0xb1, 0xbd, 0xda, 0x52, 0xe1, 0x3d, 0x68, 0x1f, 0x07, 0xbd,
  0x07, 0xfc, 0x99, 0x3c, 0x5a, 0x45, 0x6b, 0x3d, 0x5d, 0x04, 0xa1, 0xbd,
  0xd3, 0x27, 0x2e, 0x3d, 0x9b, 0x41, 0xbd, 0x3d, 0x28, 0x84, 0xd1, 0x3d,
  0x1c, 0xf5, 0x6c, 0xbd, 0xa3, 0x10, 0x0c, 0x3e, 0x8b, 0x09, 0x12, 0xbe,
  0x02, 0x45, 0xb7, 0xbb, 0x46, 0x73, 0x04, 0xbd, 0xac, 0xab, 0xa1, 0x3d,
  0x44, 0x9e, 0xf3, 0x3d, 0x7f, 0x4e, 0x16, 0x3e, 0xd1, 0x4d, 0x91, 0xbc,
  0xa8, 0xce, 0x9b, 0x3d, 0xf0, 0x96, 0x2d, 0xbd, 0xe7, 0x2d, 0xb6, 0xbc,
  0xc0, 0xb2, 0x5c, 0xbc, 0x21, 0x25, 0xa4, 0x3a, 0xe5, 0x1b, 0x7e, 0x3d,
  0xd1, 0x1e, 0xfe, 0xbd, 0x6b, 0xf6, 0x97, 0x3d, 0x1f, 0x22, 0x37, 0xbd,
  0x24, 0x78, 0x08, 0x3c, 0xa3, 0xfd, 0x61, 0xbd, 0xbe, 0xbf, 0x61, 0xbd,
  0x80, 0x82, 0x32, 0xbe, 0x10, 0x3b, 0xeb, 0x3d, 0x77, 0xf5, 0x20, 0xbb,
  0xf0, 0xba, 0x78, 0xbd, 0x80, 0x01, 0xc3, 0xbc, 0x02, 0x2c, 0x5b, 0x3d,
  0xa1, 0x91, 0xd1, 0xbd, 0x86, 0x4e, 0xd9, 0xbd, 0x9f, 0xe5, 0x47, 0xbe,
  0xed, 0x79, 0x3a, 0x3d, 0x89, 0xba, 0xcf, 0xbb, 0x46, 0x12, 0xcf, 0x3d,
  0x34, 0x36, 0xbd, 0x3d, 0x20, 0xea, 0xf0, 0x3c, 0x34, 0xb2, 0xe7, 0x3d,
  0x03, 0x7b, 0x1e, 0xbd, 0x0a, 0x40, 0x5f, 0xbe, 0xbf, 0x93, 0x8d, 0xbd,
  0x99, 0x67, 0xec, 0x3d, 0x0c, 0x53, 0x7b, 0x3d, 0x9f, 0x72, 0x16, 0x3d,
  0xd8, 0x7a, 0xfa, 0x3d, 0x8a, 0x45, 0x49, 0xbd, 0xe6, 0xda, 0xbc, 0x3d,
  0x9d, 0x43, 0xa2, 0xbc, 0x54, 0xb7, 0x14, 0xbe, 0x24, 0xf2, 0xd7, 0x3d,
  0x39, 0x67, 0xbe, 0xbc, 0x5f, 0xb4, 0x7c, 0xbd, 0xba, 0x4b, 0xf5, 0xbb,
  0xed, 0xbe, 0x89, 0x3d, 0xff, 0x7e, 0x1c, 0x3c, 0xcf, 0x8e, 0xc8, 0xbd,
  0x10, 0x8c, 0x10, 0xbc, 0xec, 0xca, 0x19, 0x3b, 0xd9, 0xce, 0xe1, 0xbc,
  0x58, 0x1c, 0x15, 0xbe, 0x54, 0x6d, 0xa7, 0x3c, 0xaf, 0xfc, 0x2e, 0xbe,
  0xa8, 0xa3, 0xd9, 0xbe, 0x96, 0x03, 0x79, 0xbd, 0x96, 0x89, 0xcb, 0xbd,
  0xe1, 0x46, 0x1d, 0x3d, 0x46, 0xe9, 0x06, 0x3d, 0xeb, 0x8a, 0x9a, 0x3d,
  0xf4, 0x91, 0xab, 0xbd, 0x4a, 0x6c, 0x3a, 0xbd, 0x8e, 0x97, 0x23, 0xbe,
  0x00, 0xa7, 0xe6, 0xbc, 0xb4, 0x62, 0x0d, 0xbe, 0xfa, 0xfd, 0x05, 0x3e,
  0x7f, 0xf5, 0x2e, 0x3e, 0x98, 0xef, 0x43, 0x3e, 0x37, 0xe2, 0xdf, 0x3c,
  0xba, 0xe5, 0xab, 0xbd, 0xa8, 0x3c, 0x03, 0x3e, 0x73, 0x01, 0x52, 0xbd,
  0xd7, 0x68, 0x3c, 0x3e, 0x7d, 0x9b, 0x0c, 0xbe, 0x52, 0x4c, 0xb6, 0xbd,
  0x54, 0x35, 0x17, 0xbe, 0x70, 0x27, 0x9f, 0xbc, 0xbb, 0x8c, 0x4b, 0x3d,
  0xeb, 0x2f, 0xed, 0x3d, 0x5c, 0x99, 0x65, 0x3e, 0xde, 0xfd, 0xff, 0xff,
  0x04, 0x00, 0x00, 0x00, 0x9c, 0x00, 0x00, 0x00, 0x70, 0x84, 0xb0, 0x3c,
  0xf7, 0xb1, 0xa1, 0x3e, 0xac, 0x74, 0x27, 0xbe, 0xb6, 0xef, 0x3f, 0xbd,
  0x5c, 0x03, 0x99, 0x3e, 0x57, 0x3a, 0x6c, 0xbd, 0x8b, 0x4c, 0x25, 0x3b,
  0x56, 0xc8, 0x1c, 0x3e, 0xce, 0xb6, 0xc1, 0xbe, 0x60, 0xfe, 0x7a, 0x3e,
  0x7c, 0x16, 0x36, 0x3d, 0xc6, 0x82, 0x62, 0x3e, 0x69, 0x12, 0x8b, 0xbe,
  0xfd, 0x60, 0x4f, 0x3e, 0xc2, 0x28, 0xbd, 0x3e, 0x7d, 0xdd, 0xf8, 0xbd,
  0xaf, 0x9b, 0x8a, 0x3e, 0x58, 0x44, 0x88, 0xbe, 0xea, 0x56, 0x99, 0x3e,
  0x0a, 0x15, 0xae, 0x3e, 0x5c, 0xa5, 0x9a, 0x3c, 0x6d, 0x36, 0x90, 0x3e,
  0xc1, 0x49, 0xc9, 0x3d, 0x2f, 0x55, 0xb5, 0x3e, 0x91, 0x60, 0x86, 0x3e,
  0x5a, 0x42, 0xe5, 0x3d, 0x11, 0x94, 0xc4, 0x3d, 0xe5, 0xbb, 0xcf, 0xbd,
  0xf5, 0xfa, 0xb0, 0x3c, 0x98, 0x9f, 0x25, 0x3e, 0xd6, 0xa5, 0x2a, 0x3e,
  0x09, 0x28, 0xcf, 0xbe, 0x8f, 0x4e, 0x65, 0xbe, 0x4f, 0x16, 0x6a, 0x3e,
  0x22, 0x43, 0xb8, 0xbb, 0x9b, 0xde, 0xb6, 0xbb, 0x65, 0x99, 0x8b, 0x3d,
  0x08, 0x09, 0xa1, 0xbe, 0xdf, 0x50, 0x58, 0x3c, 0x86, 0xfe, 0xff, 0xff,
  0x04, 0x00, 0x00, 0x00, 0x0c, 0x00, 0x00, 0x00, 0xff, 0xff, 0xff, 0xff,
  0x14, 0x00, 0x00, 0x00, 0x10, 0x00, 0x00, 0x00, 0x9e, 0xfe, 0xff, 0xff,
  0x04, 0x00, 0x00, 0x00, 0x0c, 0x00, 0x00, 0x00, 0xff, 0xff, 0xff, 0xff,
  0x28, 0x00, 0x00, 0x00, 0x10, 0x00, 0x00, 0x00, 0xb6, 0xfe, 0xff, 0xff,
  0x04, 0x00, 0x00, 0x00, 0x0c, 0x00, 0x00, 0x00, 0xff, 0xff, 0xff, 0xff,
  0x28, 0x00, 0x00, 0x00, 0x03, 0x00, 0x00, 0x00, 0xce, 0xfe, 0xff, 0xff,
  0x04, 0x00, 0x00, 0x00, 0x0c, 0x00, 0x00, 0x00, 0xff, 0xff, 0xff, 0xff,
  0x50, 0x00, 0x00, 0x00, 0x03, 0x00, 0x00, 0x00, 0xe6, 0xfe, 0xff, 0xff,
  0x04, 0x00, 0x00, 0x00, 0x40, 0x00, 0x00, 0x00, 0xa1, 0xe6, 0xd2, 0xbc,
  0x32, 0x81, 0x80, 0xba, 0x60, 0xd6, 0x01, 0xba, 0x5a, 0xaf, 0x9a, 0x3c,
  0xa0, 0x6f, 0x9f, 0x3c, 0x27, 0xa9, 0x8e, 0xbc, 0xa4, 0x09, 0x04, 0xbd,
  0xd9, 0x0b, 0xa5, 0x3b, 0x76, 0xd3, 0x77, 0x3c, 0xf3, 0xa5, 0x2d, 0x3c,
  0xe4, 0xf9, 0x18, 0xbb, 0xbc, 0xc1, 0xab, 0x3c, 0x87, 0xa2, 0xb9, 0xbc,
  0x2a, 0x07, 0x02, 0x3c, 0x50, 0x39, 0xaa, 0xbc, 0x41, 0x5d, 0x67, 0x3d,
  0x32, 0xff, 0xff, 0xff, 0x04, 0x00, 0x00, 0x00, 0x0c, 0x00, 0x00, 0x00,
  0x40, 0xff, 0x42, 0xbb, 0x89, 0x37, 0x56, 0x3d, 0x1b, 0x8c, 0x70, 0xbd,
  0xac, 0xee, 0xff, 0xff, 0xb0, 0xee, 0xff, 0xff, 0x0f, 0x00, 0x00, 0x00,
  0x4d, 0x4c, 0x49, 0x52, 0x20, 0x43, 0x6f, 0x6e, 0x76, 0x65, 0x72, 0x74,
  0x65, 0x64, 0x2e, 0x00, 0x01, 0x00, 0x00, 0x00, 0x14, 0x00, 0x00, 0x00,
  0x00, 0x00, 0x0e, 0x00, 0x18, 0x00, 0x14, 0x00, 0x10, 0x00, 0x0c, 0x00,
  0x08, 0x00, 0x04, 0x00, 0x0e, 0x00, 0x00, 0x00, 0x14, 0x00, 0x00, 0x00,
  0x1c, 0x00, 0x00, 0x00, 0xc0, 0x03, 0x00, 0x00, 0xc4, 0x03, 0x00, 0x00,
  0xc8, 0x03, 0x00, 0x00, 0x04, 0x00, 0x00, 0x00, 0x6d, 0x61, 0x69, 0x6e,
  0x00, 0x00, 0x00, 0x00, 0x10, 0x00, 0x00, 0x00, 0x78, 0x03, 0x00, 0x00,
  0x18, 0x03, 0x00, 0x00, 0xe0, 0x02, 0x00, 0x00, 0xa4, 0x02, 0x00, 0x00,
  0x50, 0x02, 0x00, 0x00, 0x28, 0x02, 0x00, 0x00, 0xf8, 0x01, 0x00, 0x00,
  0xb4, 0x01, 0x00, 0x00, 0x8c, 0x01, 0x00, 0x00, 0x5c, 0x01, 0x00, 0x00,
  0x18, 0x01, 0x00, 0x00, 0xf0, 0x00, 0x00, 0x00, 0xbc, 0x00, 0x00, 0x00,
  0x78, 0x00, 0x00, 0x00, 0x40, 0x00, 0x00, 0x00, 0x04, 0x00, 0x00, 0x00,
  0x32, 0xfd, 0xff, 0xff, 0x1c, 0x00, 0x00, 0x00, 0x00, 0x00, 0x00, 0x09,
  0x1c, 0x00, 0x00, 0x00, 0x20, 0x00, 0x00, 0x00, 0x06, 0x00, 0x00, 0x00,
  0x00, 0x00, 0x06, 0x00, 0x08, 0x00, 0x04, 0x00, 0x06, 0x00, 0x00, 0x00,
  0x00, 0x00, 0x80, 0x3f, 0x01, 0x00, 0x00, 0x00, 0x1f, 0x00, 0x00, 0x00,
  0x01, 0x00, 0x00, 0x00, 0x1e, 0x00, 0x00, 0x00, 0x6a, 0xfd, 0xff, 0xff,
  0x14, 0x00, 0x00, 0x00, 0x00, 0x00, 0x00, 0x08, 0x10, 0x00, 0x00, 0x00,
  0x14, 0x00, 0x00, 0x00, 0x05, 0x00, 0x00, 0x00, 0x98, 0xef, 0xff, 0xff,
  0x01, 0x00, 0x00, 0x00, 0x1e, 0x00, 0x00, 0x00, 0x03, 0x00, 0x00, 0x00,
  0x1d, 0x00, 0x00, 0x00, 0x0f, 0x00, 0x00, 0x00, 0x0a, 0x00, 0x00, 0x00,
  0x9e, 0xfd, 0xff, 0xff, 0x1c, 0x00, 0x00, 0x00, 0x00, 0x00, 0x00, 0x08,
  0x1c, 0x00, 0x00, 0x00, 0x20, 0x00, 0x00, 0x00, 0x05, 0x00, 0x00, 0x00,
  0x00, 0x00, 0x06, 0x00, 0x08, 0x00, 0x07, 0x00, 0x06, 0x00, 0x00, 0x00,
  0x00, 0x00, 0x00, 0x01, 0x01, 0x00, 0x00, 0x00, 0x1d, 0x00, 0x00, 0x00,
  0x03, 0x00, 0x00, 0x00, 0x1c, 0x00, 0x00, 0x00, 0x0e, 0x00, 0x00, 0x00,
  0x09, 0x00, 0x00, 0x00, 0xde, 0xfd, 0xff, 0xff, 0x14, 0x00, 0x00, 0x00,
  0x00, 0x00, 0x00, 0x1b, 0x10, 0x00, 0x00, 0x00, 0x14, 0x00, 0x00, 0x00,
  0x04, 0x00, 0x00, 0x00, 0x0c, 0xf0, 0xff, 0xff, 0x01, 0x00, 0x00, 0x00,
  0x1c, 0x00, 0x00, 0x00, 0x02, 0x00, 0x00, 0x00, 0x1b, 0x00, 0x00, 0x00,
  0x0c, 0x00, 0x00, 0x00, 0x3e, 0xfe, 0xff, 0xff, 0x0c, 0x00, 0x00, 0x00,
  0x10, 0x00, 0x00, 0x00, 0x02, 0x00, 0x00, 0x00, 0x01, 0x00, 0x00, 0x00,
  0x1b, 0x00, 0x00, 0x00, 0x02, 0x00, 0x00, 0x00, 0x1a, 0x00, 0x00, 0x00,
  0x06, 0x00, 0x00, 0x00, 0x32, 0xfe, 0xff, 0xff, 0x14, 0x00, 0x00, 0x00,
  0x00, 0x00, 0x00, 0x05, 0x24, 0x00, 0x00, 0x00, 0x28, 0x00, 0x00, 0x00,
  0x03, 0x00, 0x00, 0x00, 0xde, 0xfe, 0xff, 0xff, 0x02, 0x00, 0x00, 0x00,
  0x01, 0x00, 0x00, 0x00, 0x02, 0x00, 0x00, 0x00, 0x01, 0x00, 0x00, 0x00,
  0x00, 0x00, 0x00, 0x01, 0x01, 0x00, 0x00, 0x00, 0x1a, 0x00, 0x00, 0x00,
  0x01, 0x00, 0x00, 0x00, 0x19, 0x00, 0x00, 0x00, 0x16, 0xfe, 0xff, 0xff,
  0x10, 0x00, 0x00, 0x00, 0x00, 0x00, 0x00, 0x34, 0x0c, 0x00, 0x00, 0x00,
  0x10, 0x00, 0x00, 0x00, 0x9c, 0xf0, 0xff, 0xff, 0x01, 0x00, 0x00, 0x00,
  0x19, 0x00, 0x00, 0x00, 0x02, 0x00, 0x00, 0x00, 0x18, 0x00, 0x00, 0x00,
  0x0b, 0x00, 0x00, 0x00, 0xce, 0xfe, 0xff, 0xff, 0x0c, 0x00, 0x00, 0x00,
  0x10, 0x00, 0x00, 0x00, 0x02, 0x00, 0x00, 0x00, 0x01, 0x00, 0x00, 0x00,
  0x18, 0x00, 0x00, 0x00, 0x02, 0x00, 0x00, 0x00, 0x17, 0x00, 0x00, 0x00,
  0x05, 0x00, 0x00, 0x00, 0xc2, 0xfe, 0xff, 0xff, 0x14, 0x00, 0x00, 0x00,
  0x00, 0x00, 0x00, 0x01, 0x1c, 0x00, 0x00, 0x00, 0x20, 0x00, 0x00, 0x00,
  0x01, 0x00, 0x00, 0x00, 0xb4, 0xfe, 0xff, 0xff, 0x00, 0x00, 0x00, 0x01,
  0x01, 0x00, 0x00, 0x00, 0x01, 0x00, 0x00, 0x00, 0x01, 0x00, 0x00, 0x00,
  0x17, 0x00, 0x00, 0x00, 0x03, 0x00, 0x00, 0x00, 0x16, 0x00, 0x00, 0x00,
  0x08, 0x00, 0x00, 0x00, 0x02, 0x00, 0x00, 0x00, 0xa6, 0xfe, 0xff, 0xff,
  0x10, 0x00, 0x00, 0x00, 0x00, 0x00, 0x00, 0x34, 0x0c, 0x00, 0x00, 0x00,
  0x10, 0x00, 0x00, 0x00, 0x2c, 0xf1, 0xff, 0xff, 0x01, 0x00, 0x00, 0x00,
  0x16, 0x00, 0x00, 0x00, 0x02, 0x00, 0x00, 0x00, 0x15, 0x00, 0x00, 0x00,
  0x0d, 0x00, 0x00, 0x00, 0x5e, 0xff, 0xff, 0xff, 0x0c, 0x00, 0x00, 0x00,
  0x10, 0x00, 0x00, 0x00, 0x02, 0x00, 0x00, 0x00, 0x01, 0x00, 0x00, 0x00,
  0x15, 0x00, 0x00, 0x00, 0x02, 0x00, 0x00, 0x00, 0x14, 0x00, 0x00, 0x00,
  0x04, 0x00, 0x00, 0x00, 0x52, 0xff, 0xff, 0xff, 0x24, 0x00, 0x00, 0x00,
  0x00, 0x00, 0x00, 0x05, 0x34, 0x00, 0x00, 0x00, 0x38, 0x00, 0x00, 0x00,
  0x03, 0x00, 0x00, 0x00, 0x00, 0x00, 0x0e, 0x00, 0x18, 0x00, 0x17, 0x00,
  0x10, 0x00, 0x0c, 0x00, 0x08, 0x00, 0x04, 0x00, 0x0e, 0x00, 0x00, 0x00,
  0x02, 0x00, 0x00, 0x00, 0x01, 0x00, 0x00, 0x00, 0x02, 0x00, 0x00, 0x00,
  0x01, 0x00, 0x00, 0x00, 0x00, 0x00, 0x00, 0x01, 0x01, 0x00, 0x00, 0x00,
  0x14, 0x00, 0x00, 0x00, 0x01, 0x00, 0x00, 0x00, 0x13, 0x00, 0x00, 0x00,
  0x46, 0xff, 0xff, 0xff, 0x10, 0x00, 0x00, 0x00, 0x00, 0x00, 0x00, 0x34,
  0x0c, 0x00, 0x00, 0x00, 0x10, 0x00, 0x00, 0x00, 0xcc, 0xf1, 0xff, 0xff,
  0x01, 0x00, 0x00, 0x00, 0x13, 0x00, 0x00, 0x00, 0x02, 0x00, 0x00, 0x00,
  0x12, 0x00, 0x00, 0x00, 0x0b, 0x00, 0x00, 0x00, 0x00, 0x00, 0x0a, 0x00,
  0x10, 0x00, 0x0c, 0x00, 0x08, 0x00, 0x04, 0x00, 0x0a, 0x00, 0x00, 0x00,
  0x0c, 0x00, 0x00, 0x00, 0x10, 0x00, 0x00, 0x00, 0x02, 0x00, 0x00, 0x00,
  0x01, 0x00, 0x00, 0x00, 0x12, 0x00, 0x00, 0x00, 0x02, 0x00, 0x00, 0x00,
  0x11, 0x00, 0x00, 0x00, 0x03, 0x00, 0x00, 0x00, 0x00, 0x00, 0x0e, 0x00,
  0x18, 0x00, 0x14, 0x00, 0x10, 0x00, 0x0c, 0x00, 0x0b, 0x00, 0x04, 0x00,
  0x0e, 0x00, 0x00, 0x00, 0x20, 0x00, 0x00, 0x00, 0x00, 0x00, 0x00, 0x01,
  0x28, 0x00, 0x00, 0x00, 0x2c, 0x00, 0x00, 0x00, 0x01, 0x00, 0x00, 0x00,
  0x0c, 0x00, 0x10, 0x00, 0x00, 0x00, 0x0c, 0x00, 0x08, 0x00, 0x07, 0x00,
  0x0c, 0x00, 0x00, 0x00, 0x00, 0x00, 0x00, 0x01, 0x01, 0x00, 0x00, 0x00,
  0x01, 0x00, 0x00, 0x00, 0x01, 0x00, 0x00, 0x00, 0x11, 0x00, 0x00, 0x00,
  0x03, 0x00, 0x00, 0x00, 0x10, 0x00, 0x00, 0x00, 0x07, 0x00, 0x00, 0x00,
  0x01, 0x00, 0x00, 0x00, 0x00, 0x00, 0x0e, 0x00, 0x14, 0x00, 0x00, 0x00,
  0x10, 0x00, 0x0c, 0x00, 0x0b, 0x00, 0x04, 0x00, 0x0e, 0x00, 0x00, 0x00,
  0x10, 0x00, 0x00, 0x00, 0x00, 0x00, 0x00, 0x34, 0x0c, 0x00, 0x00, 0x00,
  0x10, 0x00, 0x00, 0x00, 0x94, 0xf2, 0xff, 0xff, 0x01, 0x00, 0x00, 0x00,
  0x10, 0x00, 0x00, 0x00, 0x02, 0x00, 0x00, 0x00, 0x00, 0x00, 0x00, 0x00,
  0x0d, 0x00, 0x00, 0x00, 0x01, 0x00, 0x00, 0x00, 0x1f, 0x00, 0x00, 0x00,
  0x01, 0x00, 0x00, 0x00, 0x00, 0x00, 0x00, 0x00, 0x20, 0x00, 0x00, 0x00,
  0x14, 0x0d, 0x00, 0x00, 0xac, 0x0c, 0x00, 0x00, 0x40, 0x0c, 0x00, 0x00,
  0xf4, 0x0b, 0x00, 0x00, 0x90, 0x0b, 0x00, 0x00, 0x40, 0x0b, 0x00, 0x00,
  0xf0, 0x0a, 0x00, 0x00, 0xa4, 0x0a, 0x00, 0x00, 0x54, 0x0a, 0x00, 0x00,
  0x04, 0x0a, 0x00, 0x00, 0xb0, 0x09, 0x00, 0x00, 0x60, 0x09, 0x00, 0x00,
  0x00, 0x09, 0x00, 0x00, 0xb0, 0x08, 0x00, 0x00, 0x6c, 0x08, 0x00, 0x00,
  0x24, 0x08, 0x00, 0x00, 0xb4, 0x07, 0x00, 0x00, 0xe8, 0x06, 0x00, 0x00,
  0x38, 0x06, 0x00, 0x00, 0xc8, 0x05, 0x00, 0x00, 0x5c, 0x05, 0x00, 0x00,
  0xf4, 0x04, 0x00, 0x00, 0x80, 0x04, 0x00, 0x00, 0xa8, 0x03, 0x00, 0x00,
  0xf0, 0x02, 0x00, 0x00, 0x7c, 0x02, 0x00, 0x00, 0x0c, 0x02, 0x00, 0x00,
  0xa4, 0x01, 0x00, 0x00, 0x44, 0x01, 0x00, 0x00, 0xcc, 0x00, 0x00, 0x00,
  0x60, 0x00, 0x00, 0x00, 0x04, 0x00, 0x00, 0x00, 0x82, 0xf3, 0xff, 0xff,
  0x00, 0x00, 0x00, 0x01, 0x14, 0x00, 0x00, 0x00, 0x1c, 0x00, 0x00, 0x00,
  0x1c, 0x00, 0x00, 0x00, 0x20, 0x00, 0x00, 0x00, 0x34, 0x00, 0x00, 0x00,
  0x02, 0x00, 0x00, 0x00, 0xff, 0xff, 0xff, 0xff, 0x03, 0x00, 0x00, 0x00,
  0x68, 0xf3, 0xff, 0xff, 0x19, 0x00, 0x00, 0x00, 0x53, 0x74, 0x61, 0x74,
  0x65, 0x66, 0x75, 0x6c, 0x50, 0x61, 0x72, 0x74, 0x69, 0x74, 0x69, 0x6f,
  0x6e, 0x65, 0x64, 0x43, 0x61, 0x6c, 0x6c, 0x3a, 0x30, 0x00, 0x00, 0x00,
  0x02, 0x00, 0x00, 0x00, 0x01, 0x00, 0x00, 0x00, 0x03, 0x00, 0x00, 0x00,
  0xda, 0xf3, 0xff, 0xff, 0x00, 0x00, 0x00, 0x01, 0x14, 0x00, 0x00, 0x00,
  0x1c, 0x00, 0x00, 0x00, 0x1c, 0x00, 0x00, 0x00, 0x1f, 0x00, 0x00, 0x00,
  0x44, 0x00, 0x00, 0x00, 0x02, 0x00, 0x00, 0x00, 0xff, 0xff, 0xff, 0xff,
  0x03, 0x00, 0x00, 0x00, 0xc0, 0xf3, 0xff, 0xff, 0x2a, 0x00, 0x00, 0x00,
  0x6d, 0x6f, 0x64, 0x65, 0x6c, 0x2f, 0x64, 0x65, 0x6e, 0x73, 0x65, 0x5f,
  0x31, 0x2f, 0x4d, 0x61, 0x74, 0x4d, 0x75, 0x6c, 0x3b, 0x6d, 0x6f, 0x64,
  0x65, 0x6c, 0x2f, 0x64, 0x65, 0x6e, 0x73, 0x65, 0x5f, 0x31, 0x2f, 0x42,
  0x69, 0x61, 0x73, 0x41, 0x64, 0x64, 0x00, 0x00, 0x02, 0x00, 0x00, 0x00,
  0x01, 0x00, 0x00, 0x00, 0x03, 0x00, 0x00, 0x00, 0x42, 0xf4, 0xff, 0xff,
  0x00, 0x00, 0x00, 0x01, 0x14, 0x00, 0x00, 0x00, 0x1c, 0x00, 0x00, 0x00,
  0x1c, 0x00, 0x00, 0x00, 0x1e, 0x00, 0x00, 0x00, 0x50, 0x00, 0x00, 0x00,
  0x02, 0x00, 0x00, 0x00, 0xff, 0xff, 0xff, 0xff, 0x10, 0x00, 0x00, 0x00,
  0x28, 0xf4, 0xff, 0xff, 0x37, 0x00, 0x00, 0x00, 0x6d, 0x6f, 0x64, 0x65,
  0x6c, 0x2f, 0x64, 0x65, 0x6e, 0x73, 0x65, 0x2f, 0x4d, 0x61, 0x74, 0x4d,
  0x75, 0x6c, 0x3b, 0x6d, 0x6f, 0x64, 0x65, 0x6c, 0x2f, 0x64, 0x65, 0x6e,
  0x73, 0x65, 0x2f, 0x52, 0x65, 0x6c, 0x75, 0x3b, 0x6d, 0x6f, 0x64, 0x65,
  0x6c, 0x2f, 0x64, 0x65, 0x6e, 0x73, 0x65, 0x2f, 0x42, 0x69, 0x61, 0x73,
  0x41, 0x64, 0x64, 0x00, 0x02, 0x00, 0x00, 0x00, 0x01, 0x00, 0x00, 0x00,
  0x10, 0x00, 0x00, 0x00, 0xb6, 0xf4, 0xff, 0xff, 0x00, 0x00, 0x00, 0x01,
  0x14, 0x00, 0x00, 0x00, 0x1c, 0x00, 0x00, 0x00, 0x1c, 0x00, 0x00, 0x00,
  0x1d, 0x00, 0x00, 0x00, 0x38, 0x00, 0x00, 0x00, 0x02, 0x00, 0x00, 0x00,
  0xff, 0xff, 0xff, 0xff, 0x10, 0x00, 0x00, 0x00, 0x9c, 0xf4, 0xff, 0xff,
  0x1e, 0x00, 0x00, 0x00, 0x6d, 0x6f, 0x64, 0x65, 0x6c, 0x2f, 0x67, 0x6c,
  0x6f, 0x62, 0x61, 0x6c, 0x5f, 0x6d, 0x61, 0x78, 0x5f, 0x70, 0x6f, 0x6f,
  0x6c, 0x69, 0x6e, 0x67, 0x31, 0x64, 0x2f, 0x4d, 0x61, 0x78, 0x00, 0x00,
  0x02, 0x00, 0x00, 0x00, 0x01, 0x00, 0x00, 0x00, 0x10, 0x00, 0x00, 0x00,
  0x12, 0xf5, 0xff, 0xff, 0x00, 0x00, 0x00, 0x01, 0x14, 0x00, 0x00, 0x00,
  0x20, 0x00, 0x00, 0x00, 0x20, 0x00, 0x00, 0x00, 0x1c, 0x00, 0x00, 0x00,
  0x3c, 0x00, 0x00, 0x00, 0x03, 0x00, 0x00, 0x00, 0xff, 0xff, 0xff, 0xff,
  0x14, 0x00, 0x00, 0x00, 0x10, 0x00, 0x00, 0x00, 0xfc, 0xf4, 0xff, 0xff,
  0x1e, 0x00, 0x00, 0x00, 0x6d, 0x6f, 0x64, 0x65, 0x6c, 0x2f, 0x6d, 0x61,
  0x78, 0x5f, 0x70, 0x6f, 0x6f, 0x6c, 0x69, 0x6e, 0x67, 0x31, 0x64, 0x5f,
  0x31, 0x2f, 0x53, 0x71, 0x75, 0x65, 0x65, 0x7a, 0x65, 0x31, 0x00, 0x00,
  0x03, 0x00, 0x00, 0x00, 0x01, 0x00, 0x00, 0x00, 0x14, 0x00, 0x00, 0x00,
  0x10, 0x00, 0x00, 0x00, 0x76, 0xf5, 0xff, 0xff, 0x00, 0x00, 0x00, 0x01,
  0x14, 0x00, 0x00, 0x00, 0x24, 0x00, 0x00, 0x00, 0x24, 0x00, 0x00, 0x00,
  0x1b, 0x00, 0x00, 0x00, 0x40, 0x00, 0x00, 0x00, 0x04, 0x00, 0x00, 0x00,
  0xff, 0xff, 0xff, 0xff, 0x14, 0x00, 0x00, 0x00, 0x01, 0x00, 0x00, 0x00,
  0x10, 0x00, 0x00, 0x00, 0x64, 0xf5, 0xff, 0xff, 0x1d, 0x00, 0x00, 0x00,
  0x6d, 0x6f, 0x64, 0x65, 0x6c, 0x2f, 0x6d, 0x61, 0x78, 0x5f, 0x70, 0x6f,
  0x6f, 0x6c, 0x69, 0x6e, 0x67, 0x31, 0x64, 0x5f, 0x31, 0x2f, 0x4d, 0x61,
  0x78, 0x50, 0x6f, 0x6f, 0x6c, 0x00, 0x00, 0x00, 0x04, 0x00, 0x00, 0x00,
  0x01, 0x00, 0x00, 0x00, 0x14, 0x00, 0x00, 0x00, 0x01, 0x00, 0x00, 0x00,
  0x10, 0x00, 0x00, 0x00, 0xe2, 0xf5, 0xff, 0xff, 0x00, 0x00, 0x00, 0x01,
  0x14, 0x00, 0x00, 0x00, 0x24, 0x00, 0x00, 0x00, 0x24, 0x00, 0x00, 0x00,
  0x1a, 0x00, 0x00, 0x00, 0x44, 0x00, 0x00, 0x00, 0x04, 0x00, 0x00, 0x00,
  0xff, 0xff, 0xff, 0xff, 0x28, 0x00, 0x00, 0x00, 0x01, 0x00, 0x00, 0x00,
  0x10, 0x00, 0x00, 0x00, 0xd0, 0xf5, 0xff, 0xff, 0x20, 0x00, 0x00, 0x00,
  0x6d, 0x6f, 0x64, 0x65, 0x6c, 0x2f, 0x6d, 0x61, 0x78, 0x5f, 0x70, 0x6f,
  0x6f, 0x6c, 0x69, 0x6e, 0x67, 0x31, 0x64, 0x5f, 0x31, 0x2f, 0x45, 0x78,
  0x70, 0x61, 0x6e, 0x64, 0x44, 0x69, 0x6d, 0x73, 0x00, 0x00, 0x00, 0x00,
  0x04, 0x00, 0x00, 0x00, 0x01, 0x00, 0x00, 0x00, 0x28, 0x00, 0x00, 0x00,
  0x01, 0x00, 0x00, 0x00, 0x10, 0x00, 0x00, 0x00, 0x52, 0xf6, 0xff, 0xff,
  0x00, 0x00, 0x00, 0x01, 0x14, 0x00, 0x00, 0x00, 0x20, 0x00, 0x00, 0x00,
  0x20, 0x00, 0x00, 0x00, 0x19, 0x00, 0x00, 0x00, 0x8c, 0x00, 0x00, 0x00,
  0x03, 0x00, 0x00, 0x00, 0xff, 0xff, 0xff, 0xff, 0x28, 0x00, 0x00, 0x00,
  0x10, 0x00, 0x00, 0x00, 0x3c, 0xf6, 0xff, 0xff, 0x6e, 0x00, 0x00, 0x00,
  0x6d, 0x6f, 0x64, 0x65, 0x6c, 0x2f, 0x63, 0x6f, 0x6e, 0x76, 0x31, 0x64,
  0x5f, 0x31, 0x2f, 0x52, 0x65, 0x6c, 0x75, 0x3b, 0x6d, 0x6f, 0x64, 0x65,
  0x6c, 0x2f, 0x63, 0x6f, 0x6e, 0x76, 0x31, 0x64, 0x5f, 0x31, 0x2f, 0x42,
  0x69, 0x61, 0x73, 0x41, 0x64, 0x64, 0x3b, 0x6d, 0x6f, 0x64, 0x65, 0x6c,
  0x2f, 0x63, 0x6f, 0x6e, 0x76, 0x31, 0x64, 0x5f, 0x31, 0x2f, 0x43, 0x6f,
  0x6e, 0x76, 0x31, 0x44, 0x2f, 0x53, 0x71, 0x75, 0x65, 0x65, 0x7a, 0x65,
  0x3b, 0x6d, 0x6f, 0x64, 0x65, 0x6c, 0x2f, 0x63, 0x6f, 0x6e, 0x76, 0x31,
  0x64, 0x5f, 0x31, 0x2f, 0x42, 0x69, 0x61, 0x73, 0x41, 0x64, 0x64, 0x2f,
  0x52, 0x65, 0x61, 0x64, 0x56, 0x61, 0x72, 0x69, 0x61, 0x62, 0x6c, 0x65,
  0x4f, 0x70, 0x00, 0x00, 0x03, 0x00, 0x00, 0x00, 0x01, 0x00, 0x00, 0x00,
  0x28, 0x00, 0x00, 0x00, 0x10, 0x00, 0x00, 0x00, 0x06, 0xf7, 0xff, 0xff,
  0x00, 0x00, 0x00, 0x01, 0x14, 0x00, 0x00, 0x00, 0x24, 0x00, 0x00, 0x00,
  0x24, 0x00, 0x00, 0x00, 0x18, 0x00, 0x00, 0x00, 0xa8, 0x00, 0x00, 0x00,
  0x04, 0x00, 0x00, 0x00, 0xff, 0xff, 0xff, 0xff, 0x01, 0x00, 0x00, 0x00,
  0x28, 0x00, 0x00, 0x00, 0x10, 0x00, 0x00, 0x00, 0xf4, 0xf6, 0xff, 0xff,
  0x84, 0x00, 0x00, 0x00, 0x6d, 0x6f, 0x64, 0x65, 0x6c, 0x2f, 0x63, 0x6f,
  0x6e, 0x76, 0x31, 0x64, 0x5f, 0x31, 0x2f, 0x52, 0x65, 0x6c, 0x75, 0x3b,
  0x6d, 0x6f, 0x64, 0x65, 0x6c, 0x2f, 0x63, 0x6f, 0x6e, 0x76, 0x31, 0x64,
  0x5f, 0x31, 0x2f, 0x42, 0x69, 0x61, 0x73, 0x41, 0x64, 0x64, 0x3b, 0x6d,
  0x6f, 0x64, 0x65, 0x6c, 0x2f, 0x63, 0x6f, 0x6e, 0x76, 0x31, 0x64, 0x5f,
  0x31, 0x2f, 0x43, 0x6f, 0x6e, 0x76, 0x31, 0x44, 0x2f, 0x53, 0x71, 0x75,
  0x65, 0x65, 0x7a, 0x65, 0x3b, 0x6d, 0x6f, 0x64, 0x65, 0x6c, 0x2f, 0x63,
  0x6f, 0x6e, 0x76, 0x31, 0x64, 0x5f, 0x31, 0x2f, 0x42, 0x69, 0x61, 0x73,
  0x41, 0x64, 0x64, 0x2f, 0x52, 0x65, 0x61, 0x64, 0x56, 0x61, 0x72, 0x69,
  0x61, 0x62, 0x6c, 0x65, 0x4f, 0x70, 0x3b, 0x6d, 0x6f, 0x64, 0x65, 0x6c,
  0x2f, 0x63, 0x6f, 0x6e, 0x76, 0x31, 0x64, 0x5f, 0x31, 0x2f, 0x43, 0x6f,
  0x6e, 0x76, 0x31, 0x44, 0x00, 0x00, 0x00, 0x00, 0x04, 0x00, 0x00, 0x00,
  0x01, 0x00, 0x00, 0x00, 0x01, 0x00, 0x00, 0x00, 0x28, 0x00, 0x00, 0x00,
  0x10, 0x00, 0x00, 0x00, 0xda, 0xf7, 0xff, 0xff, 0x00, 0x00, 0x00, 0x01,
  0x14, 0x00, 0x00, 0x00, 0x24, 0x00, 0x00, 0x00, 0x24, 0x00, 0x00, 0x00,
  0x17, 0x00, 0x00, 0x00, 0x44, 0x00, 0x00, 0x00, 0x04, 0x00, 0x00, 0x00,
  0xff, 0xff, 0xff, 0xff, 0x01, 0x00, 0x00, 0x00, 0x28, 0x00, 0x00, 0x00,
  0x03, 0x00, 0x00, 0x00, 0xc8, 0xf7, 0xff, 0xff, 0x20, 0x00, 0x00, 0x00,
  0x6d, 0x6f, 0x64, 0x65, 0x6c, 0x2f, 0x63, 0x6f, 0x6e, 0x76, 0x31, 0x64,
  0x5f, 0x31, 0x2f, 0x43, 0x6f, 0x6e, 0x76, 0x31, 0x44, 0x2f, 0x45, 0x78,
  0x70, 0x61, 0x6e, 0x64, 0x44, 0x69, 0x6d, 0x73, 0x00, 0x00, 0x00, 0x00,
  0x04, 0x00, 0x00, 0x00, 0x01, 0x00, 0x00, 0x00, 0x01, 0x00, 0x00, 0x00,
  0x28, 0x00, 0x00, 0x00, 0x03, 0x00, 0x00, 0x00, 0x4a, 0xf8, 0xff, 0xff,
  0x00, 0x00, 0x00, 0x01, 0x14, 0x00, 0x00, 0x00, 0x20, 0x00, 0x00, 0x00,
  0x20, 0x00, 0x00, 0x00, 0x16, 0x00, 0x00, 0x00, 0x3c, 0x00, 0x00, 0x00,
  0x03, 0x00, 0x00, 0x00, 0xff, 0xff, 0xff, 0xff, 0x28, 0x00, 0x00, 0x00,
  0x03, 0x00, 0x00, 0x00, 0x34, 0xf8, 0xff, 0xff, 0x1c, 0x00, 0x00, 0x00,
  0x6d, 0x6f, 0x64, 0x65, 0x6c, 0x2f, 0x6d, 0x61, 0x78, 0x5f, 0x70, 0x6f,
  0x6f, 0x6c, 0x69, 0x6e, 0x67, 0x31, 0x64, 0x2f, 0x53, 0x71, 0x75, 0x65,
  0x65, 0x7a, 0x65, 0x31, 0x00, 0x00, 0x00, 0x00, 0x03, 0x00, 0x00, 0x00,
  0x01, 0x00, 0x00, 0x00, 0x28, 0x00, 0x00, 0x00, 0x03, 0x00, 0x00, 0x00,
  0xae, 0xf8, 0xff, 0xff, 0x00, 0x00, 0x00, 0x01, 0x14, 0x00, 0x00, 0x00,
  0x24, 0x00, 0x00, 0x00, 0x24, 0x00, 0x00, 0x00, 0x15, 0x00, 0x00, 0x00,
  0x3c, 0x00, 0x00, 0x00, 0x04, 0x00, 0x00, 0x00, 0xff, 0xff, 0xff, 0xff,
  0x28, 0x00, 0x00, 0x00, 0x01, 0x00, 0x00, 0x00, 0x03, 0x00, 0x00, 0x00,
  0x9c, 0xf8, 0xff, 0xff, 0x1b, 0x00, 0x00, 0x00, 0x6d, 0x6f, 0x64, 0x65,
  0x6c, 0x2f, 0x6d, 0x61, 0x78, 0x5f, 0x70, 0x6f, 0x6f, 0x6c, 0x69, 0x6e,
  0x67, 0x31, 0x64, 0x2f, 0x4d, 0x61, 0x78, 0x50, 0x6f, 0x6f, 0x6c, 0x00,
  0x04, 0x00, 0x00, 0x00, 0x01, 0x00, 0x00, 0x00, 0x28, 0x00, 0x00, 0x00,
  0x01, 0x00, 0x00, 0x00, 0x03, 0x00, 0x00, 0x00, 0x16, 0xf9, 0xff, 0xff,
  0x00, 0x00, 0x00, 0x01, 0x14, 0x00, 0x00, 0x00, 0x24, 0x00, 0x00, 0x00,
  0x24, 0x00, 0x00, 0x00, 0x14, 0x00, 0x00, 0x00, 0x40, 0x00, 0x00, 0x00,
  0x04, 0x00, 0x00, 0x00, 0xff, 0xff, 0xff, 0xff, 0x50, 0x00, 0x00, 0x00,
  0x01, 0x00, 0x00, 0x00, 0x03, 0x00, 0x00, 0x00, 0x04, 0xf9, 0xff, 0xff,
  0x1e, 0x00, 0x00, 0x00, 0x6d, 0x6f, 0x64, 0x65, 0x6c, 0x2f, 0x6d, 0x61,
  0x78, 0x5f, 0x70, 0x6f, 0x6f, 0x6c, 0x69, 0x6e, 0x67, 0x31, 0x64, 0x2f,
  0x45, 0x78, 0x70, 0x61, 0x6e, 0x64, 0x44, 0x69, 0x6d, 0x73, 0x00, 0x00,
  0x04, 0x00, 0x00, 0x00, 0x01, 0x00, 0x00, 0x00, 0x50, 0x00, 0x00, 0x00,
  0x01, 0x00, 0x00, 0x00, 0x03, 0x00, 0x00, 0x00, 0x82, 0xf9, 0xff, 0xff,
  0x00, 0x00, 0x00, 0x01, 0x14, 0x00, 0x00, 0x00, 0x20, 0x00, 0x00, 0x00,
  0x20, 0x00, 0x00, 0x00, 0x13, 0x00, 0x00, 0x00, 0x84, 0x00, 0x00, 0x00,
  0x03, 0x00, 0x00, 0x00, 0xff, 0xff, 0xff, 0xff, 0x50, 0x00, 0x00, 0x00,
  0x03, 0x00, 0x00, 0x00, 0x6c, 0xf9, 0xff, 0xff, 0x66, 0x00, 0x00, 0x00,
  0x6d, 0x6f, 0x64, 0x65, 0x6c, 0x2f, 0x63, 0x6f, 0x6e, 0x76, 0x31, 0x64,
  0x2f, 0x52, 0x65, 0x6c, 0x75, 0x3b, 0x6d, 0x6f, 0x64, 0x65, 0x6c, 0x2f,
  0x63, 0x6f, 0x6e, 0x76, 0x31, 0x64, 0x2f, 0x42, 0x69, 0x61, 0x73, 0x41,
  0x64, 0x64, 0x3b, 0x6d, 0x6f, 0x64, 0x65, 0x6c, 0x2f, 0x63, 0x6f, 0x6e,
  0x76, 0x31, 0x64, 0x2f, 0x43, 0x6f, 0x6e, 0x76, 0x31, 0x44, 0x2f, 0x53,
  0x71, 0x75, 0x65, 0x65, 0x7a, 0x65, 0x3b, 0x6d, 0x6f, 0x64, 0x65, 0x6c,
  0x2f, 0x63, 0x6f, 0x6e, 0x76, 0x31, 0x64, 0x2f, 0x42, 0x69, 0x61, 0x73,
  0x41, 0x64, 0x64, 0x2f, 0x52, 0x65, 0x61, 0x64, 0x56, 0x61, 0x72, 0x69,
  0x61, 0x62, 0x6c, 0x65, 0x4f, 0x70, 0x00, 0x00, 0x03, 0x00, 0x00, 0x00,
  0x01, 0x00, 0x00, 0x00, 0x50, 0x00, 0x00, 0x00, 0x03, 0x00, 0x00, 0x00,
  0x2e, 0xfa, 0xff, 0xff, 0x00, 0x00, 0x00, 0x01, 0x14, 0x00, 0x00, 0x00,
  0x24, 0x00, 0x00, 0x00, 0x24, 0x00, 0x00, 0x00, 0x12, 0x00, 0x00, 0x00,
  0x9c, 0x00, 0x00, 0x00, 0x04, 0x00, 0x00, 0x00, 0xff, 0xff, 0xff, 0xff,
  0x01, 0x00, 0x00, 0x00, 0x50, 0x00, 0x00, 0x00, 0x03, 0x00, 0x00, 0x00,
  0x1c, 0xfa, 0xff, 0xff, 0x7a, 0x00, 0x00, 0x00, 0x6d, 0x6f, 0x64, 0x65,
  0x6c, 0x2f, 0x63, 0x6f, 0x6e, 0x76, 0x31, 0x64, 0x2f, 0x52, 0x65, 0x6c,
  0x75, 0x3b, 0x6d, 0x6f, 0x64, 0x65, 0x6c, 0x2f, 0x63, 0x6f, 0x6e, 0x76,
  0x31, 0x64, 0x2f, 0x42, 0x69, 0x61, 0x73, 0x41, 0x64, 0x64, 0x3b, 0x6d,
  0x6f, 0x64, 0x65, 0x6c, 0x2f, 0x63, 0x6f, 0x6e, 0x76, 0x31, 0x64, 0x2f,
  0x43, 0x6f, 0x6e, 0x76, 0x31, 0x44, 0x2f, 0x53, 0x71, 0x75, 0x65, 0x65,
  0x7a, 0x65, 0x3b, 0x6d, 0x6f, 0x64, 0x65, 0x6c, 0x2f, 0x63, 0x6f, 0x6e,
  0x76, 0x31, 0x64, 0x2f, 0x42, 0x69, 0x61, 0x73, 0x41, 0x64, 0x64, 0x2f,
  0x52, 0x65, 0x61, 0x64, 0x56, 0x61, 0x72, 0x69, 0x61, 0x62, 0x6c, 0x65,
  0x4f, 0x70, 0x3b, 0x6d, 0x6f, 0x64, 0x65, 0x6c, 0x2f, 0x63, 0x6f, 0x6e,
  0x76, 0x31, 0x64, 0x2f, 0x43, 0x6f, 0x6e, 0x76, 0x31, 0x44, 0x00, 0x00,
  0x04, 0x00, 0x00, 0x00, 0x01, 0x00, 0x00, 0x00, 0x01, 0x00, 0x00, 0x00,
  0x50, 0x00, 0x00, 0x00, 0x03, 0x00, 0x00, 0x00, 0xf6, 0xfa, 0xff, 0xff,
  0x00, 0x00, 0x00, 0x01, 0x14, 0x00, 0x00, 0x00, 0x24, 0x00, 0x00, 0x00,
  0x24, 0x00, 0x00, 0x00, 0x11, 0x00, 0x00, 0x00, 0x40, 0x00, 0x00, 0x00,
  0x04, 0x00, 0x00, 0x00, 0xff, 0xff, 0xff, 0xff, 0x01, 0x00, 0x00, 0x00,
  0x50, 0x00, 0x00, 0x00, 0x01, 0x00, 0x00, 0x00, 0xe4, 0xfa, 0xff, 0xff,
  0x1e, 0x00, 0x00, 0x00, 0x6d, 0x6f, 0x64, 0x65, 0x6c, 0x2f, 0x63, 0x6f,
  0x6e, 0x76, 0x31, 0x64, 0x2f, 0x43, 0x6f, 0x6e, 0x76, 0x31, 0x44, 0x2f,
  0x45, 0x78, 0x70, 0x61, 0x6e, 0x64, 0x44, 0x69, 0x6d, 0x73, 0x00, 0x00,
  0x04, 0x00, 0x00, 0x00, 0x01, 0x00, 0x00, 0x00, 0x01, 0x00, 0x00, 0x00,
  0x50, 0x00, 0x00, 0x00, 0x01, 0x00, 0x00, 0x00, 0xc6, 0xfb, 0xff, 0xff,
  0x00, 0x00, 0x00, 0x01, 0x10, 0x00, 0x00, 0x00, 0x10, 0x00, 0x00, 0x00,
  0x10, 0x00, 0x00, 0x00, 0x24, 0x00, 0x00, 0x00, 0x38, 0xfb, 0xff, 0xff,
  0x14, 0x00, 0x00, 0x00, 0x6d, 0x6f, 0x64, 0x65, 0x6c, 0x2f, 0x64, 0x65,
  0x6e, 0x73, 0x65, 0x5f, 0x31, 0x2f, 0x4d, 0x61, 0x74, 0x4d, 0x75, 0x6c,
  0x00, 0x00, 0x00, 0x00, 0x02, 0x00, 0x00, 0x00, 0x03, 0x00, 0x00, 0x00,
  0x10, 0x00, 0x00, 0x00, 0x0a, 0xfc, 0xff, 0xff, 0x00, 0x00, 0x00, 0x01,
  0x10, 0x00, 0x00, 0x00, 0x10, 0x00, 0x00, 0x00, 0x0f, 0x00, 0x00, 0x00,
  0x20, 0x00, 0x00, 0x00, 0x7c, 0xfb, 0xff, 0xff, 0x12, 0x00, 0x00, 0x00,
  0x6d, 0x6f, 0x64, 0x65, 0x6c, 0x2f, 0x64, 0x65, 0x6e, 0x73, 0x65, 0x2f,
  0x4d, 0x61, 0x74, 0x4d, 0x75, 0x6c, 0x00, 0x00, 0x02, 0x00, 0x00, 0x00,
  0x10, 0x00, 0x00, 0x00, 0x10, 0x00, 0x00, 0x00, 0xfa, 0xfc, 0xff, 0xff,
  0x00, 0x00, 0x00, 0x01, 0x14, 0x00, 0x00, 0x00, 0x14, 0x00, 0x00, 0x00,
  0x0e, 0x00, 0x00, 0x00, 0x00, 0x00, 0x00, 0x02, 0x30, 0x00, 0x00, 0x00,
  0xc0, 0xfb, 0xff, 0xff, 0x22, 0x00, 0x00, 0x00, 0x6d, 0x6f, 0x64, 0x65,
  0x6c, 0x2f, 0x63, 0x6f, 0x6e, 0x76, 0x31, 0x64, 0x2f, 0x43, 0x6f, 0x6e,
  0x76, 0x31, 0x44, 0x2f, 0x45, 0x78, 0x70, 0x61, 0x6e, 0x64, 0x44, 0x69,
  0x6d, 0x73, 0x2f, 0x64, 0x69, 0x6d, 0x00, 0x00, 0x00, 0x00, 0x00, 0x00,
  0x46, 0xfd, 0xff, 0xff, 0x00, 0x00, 0x00, 0x01, 0x14, 0x00, 0x00, 0x00,
  0x14, 0x00, 0x00, 0x00, 0x0d, 0x00, 0x00, 0x00, 0x00, 0x00, 0x00, 0x02,
  0x40, 0x00, 0x00, 0x00, 0x0c, 0xfc, 0xff, 0xff, 0x30, 0x00, 0x00, 0x00,
  0x6d, 0x6f, 0x64, 0x65, 0x6c, 0x2f, 0x67, 0x6c, 0x6f, 0x62, 0x61, 0x6c,
  0x5f, 0x6d, 0x61, 0x78, 0x5f, 0x70, 0x6f, 0x6f, 0x6c, 0x69, 0x6e, 0x67,
  0x31, 0x64, 0x2f, 0x4d, 0x61, 0x78, 0x2f, 0x72, 0x65, 0x64, 0x75, 0x63,
  0x74, 0x69, 0x6f, 0x6e, 0x5f, 0x69, 0x6e, 0x64, 0x69, 0x63, 0x65, 0x73,
  0x00, 0x00, 0x00, 0x00, 0x00, 0x00, 0x00, 0x00, 0xa2, 0xfd, 0xff, 0xff,
  0x00, 0x00, 0x00, 0x01, 0x14, 0x00, 0x00, 0x00, 0x14, 0x00, 0x00, 0x00,
  0x0c, 0x00, 0x00, 0x00, 0x00, 0x00, 0x00, 0x02, 0x30, 0x00, 0x00, 0x00,
  0x68, 0xfc, 0xff, 0xff, 0x22, 0x00, 0x00, 0x00, 0x6d, 0x6f, 0x64, 0x65,
  0x6c, 0x2f, 0x6d, 0x61, 0x78, 0x5f, 0x70, 0x6f, 0x6f, 0x6c, 0x69, 0x6e,
  0x67, 0x31, 0x64, 0x2f, 0x45, 0x78, 0x70, 0x61, 0x6e, 0x64, 0x44, 0x69,
  0x6d, 0x73, 0x2f, 0x64, 0x69, 0x6d, 0x00, 0x00, 0x00, 0x00, 0x00, 0x00,
  0x3e, 0xfd, 0xff, 0xff, 0x00, 0x00, 0x00, 0x01, 0x10, 0x00, 0x00, 0x00,
  0x10, 0x00, 0x00, 0x00, 0x0b, 0x00, 0x00, 0x00, 0x34, 0x00, 0x00, 0x00,
  0xb0, 0xfc, 0xff, 0xff, 0x24, 0x00, 0x00, 0x00, 0x6d, 0x6f, 0x64, 0x65,
  0x6c, 0x2f, 0x64, 0x65, 0x6e, 0x73, 0x65, 0x5f, 0x31, 0x2f, 0x42, 0x69,
  0x61, 0x73, 0x41, 0x64, 0x64, 0x2f, 0x52, 0x65, 0x61, 0x64, 0x56, 0x61,
  0x72, 0x69, 0x61, 0x62, 0x6c, 0x65, 0x4f, 0x70, 0x00, 0x00, 0x00, 0x00,
  0x01, 0x00, 0x00, 0x00, 0x03, 0x00, 0x00, 0x00, 0x8e, 0xfd, 0xff, 0xff,
  0x00, 0x00, 0x00, 0x01, 0x10, 0x00, 0x00, 0x00, 0x10, 0x00, 0x00, 0x00,
  0x0a, 0x00, 0x00, 0x00, 0x30, 0x00, 0x00, 0x00, 0x00, 0xfd, 0xff, 0xff,
  0x22, 0x00, 0x00, 0x00, 0x6d, 0x6f, 0x64, 0x65, 0x6c, 0x2f, 0x64, 0x65,
  0x6e, 0x73, 0x65, 0x2f, 0x42, 0x69, 0x61, 0x73, 0x41, 0x64, 0x64, 0x2f,
  0x52, 0x65, 0x61, 0x64, 0x56, 0x61, 0x72, 0x69, 0x61, 0x62, 0x6c, 0x65,
  0x4f, 0x70, 0x00, 0x00, 0x01, 0x00, 0x00, 0x00, 0x10, 0x00, 0x00, 0x00,
  0xda, 0xfd, 0xff, 0xff, 0x00, 0x00, 0x00, 0x01, 0x10, 0x00, 0x00, 0x00,
  0x10, 0x00, 0x00, 0x00, 0x09, 0x00, 0x00, 0x00, 0x24, 0x00, 0x00, 0x00,
  0x4c, 0xfd, 0xff, 0xff, 0x15, 0x00, 0x00, 0x00, 0x6d, 0x6f, 0x64, 0x65,
  0x6c, 0x2f, 0x63, 0x6f, 0x6e, 0x76, 0x31, 0x64, 0x5f, 0x31, 0x2f, 0x43,
  0x6f, 0x6e, 0x76, 0x31, 0x44, 0x00, 0x00, 0x00, 0x04, 0x00, 0x00, 0x00,
  0x10, 0x00, 0x00, 0x00, 0x01, 0x00, 0x00, 0x00, 0x0b, 0x00, 0x00, 0x00,
  0x03, 0x00, 0x00, 0x00, 0x26, 0xfe, 0xff, 0xff, 0x00, 0x00, 0x00, 0x01,
  0x10, 0x00, 0x00, 0x00, 0x10, 0x00, 0x00, 0x00, 0x08, 0x00, 0x00, 0x00,
  0x20, 0x00, 0x00, 0x00, 0x98, 0xfd, 0xff, 0xff, 0x13, 0x00, 0x00, 0x00,
  0x6d, 0x6f, 0x64, 0x65, 0x6c, 0x2f, 0x63, 0x6f, 0x6e, 0x76, 0x31, 0x64,
  0x2f, 0x43, 0x6f, 0x6e, 0x76, 0x31, 0x44, 0x00, 0x04, 0x00, 0x00, 0x00,
  0x03, 0x00, 0x00, 0x00, 0x01, 0x00, 0x00, 0x00, 0x0d, 0x00, 0x00, 0x00,
  0x01, 0x00, 0x00, 0x00, 0x1e, 0xff, 0xff, 0xff, 0x00, 0x00, 0x00, 0x01,
  0x14, 0x00, 0x00, 0x00, 0x14, 0x00, 0x00, 0x00, 0x07, 0x00, 0x00, 0x00,
  0x00, 0x00, 0x00, 0x02, 0x2c, 0x00, 0x00, 0x00, 0xe4, 0xfd, 0xff, 0xff,
  0x1d, 0x00, 0x00, 0x00, 0x6d, 0x6f, 0x64, 0x65, 0x6c, 0x2f, 0x6d, 0x61,
  0x78, 0x5f, 0x70, 0x6f, 0x6f, 0x6c, 0x69, 0x6e, 0x67, 0x31, 0x64, 0x5f,
  0x31, 0x2f, 0x53, 0x71, 0x75, 0x65, 0x65, 0x7a, 0x65, 0x00, 0x00, 0x00,
  0x01, 0x00, 0x00, 0x00, 0x03, 0x00, 0x00, 0x00, 0x6a, 0xff, 0xff, 0xff,
  0x00, 0x00, 0x00, 0x01, 0x14, 0x00, 0x00, 0x00, 0x14, 0x00, 0x00, 0x00,
  0x06, 0x00, 0x00, 0x00, 0x00, 0x00, 0x00, 0x02, 0x2c, 0x00, 0x00, 0x00,
  0x30, 0xfe, 0xff, 0xff, 0x1d, 0x00, 0x00, 0x00, 0x6d, 0x6f, 0x64, 0x65,
  0x6c, 0x2f, 0x63, 0x6f, 0x6e, 0x76, 0x31, 0x64, 0x5f, 0x31, 0x2f, 0x43,
  0x6f, 0x6e, 0x76, 0x31, 0x44, 0x2f, 0x53, 0x71, 0x75, 0x65, 0x65, 0x7a,
  0x65, 0x00, 0x00, 0x00, 0x01, 0x00, 0x00, 0x00, 0x03, 0x00, 0x00, 0x00,
  0xb6, 0xff, 0xff, 0xff, 0x00, 0x00, 0x00, 0x01, 0x14, 0x00, 0x00, 0x00,
  0x14, 0x00, 0x00, 0x00, 0x05, 0x00, 0x00, 0x00, 0x00, 0x00, 0x00, 0x02,
  0x28, 0x00, 0x00, 0x00, 0x7c, 0xfe, 0xff, 0xff, 0x1b, 0x00, 0x00, 0x00,
  0x6d, 0x6f, 0x64, 0x65, 0x6c, 0x2f, 0x6d, 0x61, 0x78, 0x5f, 0x70, 0x6f,
  0x6f, 0x6c, 0x69, 0x6e, 0x67, 0x31, 0x64, 0x2f, 0x53, 0x71, 0x75, 0x65,
  0x65, 0x7a, 0x65, 0x00, 0x01, 0x00, 0x00, 0x00, 0x03, 0x00, 0x00, 0x00,
  0x00, 0x00, 0x16, 0x00, 0x1c, 0x00, 0x18, 0x00, 0x17, 0x00, 0x10, 0x00,
  0x0c, 0x00, 0x08, 0x00, 0x00, 0x00, 0x00, 0x00, 0x00, 0x00, 0x07, 0x00,
  0x16, 0x00, 0x00, 0x00, 0x00, 0x00, 0x00, 0x01, 0x14, 0x00, 0x00, 0x00,
  0x14, 0x00, 0x00, 0x00, 0x04, 0x00, 0x00, 0x00, 0x00, 0x00, 0x00, 0x02,
  0x28, 0x00, 0x00, 0x00, 0xdc, 0xfe, 0xff, 0xff, 0x1b, 0x00, 0x00, 0x00,
  0x6d, 0x6f, 0x64, 0x65, 0x6c, 0x2f, 0x63, 0x6f, 0x6e, 0x76, 0x31, 0x64,
  0x2f, 0x43, 0x6f, 0x6e, 0x76, 0x31, 0x44, 0x2f, 0x53, 0x71, 0x75, 0x65,
  0x65, 0x7a, 0x65, 0x00, 0x01, 0x00, 0x00, 0x00, 0x03, 0x00, 0x00, 0x00,
  0xae, 0xff, 0xff, 0xff, 0x00, 0x00, 0x00, 0x01, 0x10, 0x00, 0x00, 0x00,
  0x10, 0x00, 0x00, 0x00, 0x03, 0x00, 0x00, 0x00, 0x34, 0x00, 0x00, 0x00,
  0x20, 0xff, 0xff, 0xff, 0x25, 0x00, 0x00, 0x00, 0x6d, 0x6f, 0x64, 0x65,
  0x6c, 0x2f, 0x63, 0x6f, 0x6e, 0x76, 0x31, 0x64, 0x5f, 0x31, 0x2f, 0x42,
  0x69, 0x61, 0x73, 0x41, 0x64, 0x64, 0x2f, 0x52, 0x65, 0x61, 0x64, 0x56,
  0x61, 0x72, 0x69, 0x61, 0x62, 0x6c, 0x65, 0x4f, 0x70, 0x00, 0x00, 0x00,
  0x01, 0x00, 0x00, 0x00, 0x10, 0x00, 0x00, 0x00, 0x00, 0x00, 0x16, 0x00,
  0x18, 0x00, 0x14, 0x00, 0x00, 0x00, 0x10, 0x00, 0x0c, 0x00, 0x08, 0x00,
  0x00, 0x00, 0x00, 0x00, 0x00, 0x00, 0x07, 0x00, 0x16, 0x00, 0x00, 0x00,
  0x00, 0x00, 0x00, 0x01, 0x10, 0x00, 0x00, 0x00, 0x10, 0x00, 0x00, 0x00,
  0x02, 0x00, 0x00, 0x00, 0x30, 0x00, 0x00, 0x00, 0x88, 0xff, 0xff, 0xff,
  0x23, 0x00, 0x00, 0x00, 0x6d, 0x6f, 0x64, 0x65, 0x6c, 0x2f, 0x63, 0x6f,
  0x6e, 0x76, 0x31, 0x64, 0x2f, 0x42, 0x69, 0x61, 0x73, 0x41, 0x64, 0x64,
  0x2f, 0x52, 0x65, 0x61, 0x64, 0x56, 0x61, 0x72, 0x69, 0x61, 0x62, 0x6c,
  0x65, 0x4f, 0x70, 0x00, 0x01, 0x00, 0x00, 0x00, 0x03, 0x00, 0x00, 0x00,
  0x00, 0x00, 0x16, 0x00, 0x1c, 0x00, 0x18, 0x00, 0x00, 0x00, 0x14, 0x00,
  0x10, 0x00, 0x0c, 0x00, 0x00, 0x00, 0x00, 0x00, 0x08, 0x00, 0x07, 0x00,
  0x16, 0x00, 0x00, 0x00, 0x00, 0x00, 0x00, 0x01, 0x14, 0x00, 0x00, 0x00,
  0x24, 0x00, 0x00, 0x00, 0x24, 0x00, 0x00, 0x00, 0x01, 0x00, 0x00, 0x00,
  0x3c, 0x00, 0x00, 0x00, 0x03, 0x00, 0x00, 0x00, 0xff, 0xff, 0xff, 0xff,
  0x50, 0x00, 0x00, 0x00, 0x01, 0x00, 0x00, 0x00, 0x04, 0x00, 0x04, 0x00,
  0x04, 0x00, 0x00, 0x00, 0x19, 0x00, 0x00, 0x00, 0x73, 0x65, 0x72, 0x76,
  0x69, 0x6e, 0x67, 0x5f, 0x64, 0x65, 0x66, 0x61, 0x75, 0x6c, 0x74, 0x5f,
  0x69, 0x6e, 0x70, 0x75, 0x74, 0x5f, 0x31, 0x3a, 0x30, 0x00, 0x00, 0x00,
  0x03, 0x00, 0x00, 0x00, 0x01, 0x00, 0x00, 0x00, 0x50, 0x00, 0x00, 0x00,
  0x01, 0x00, 0x00, 0x00, 0x07, 0x00, 0x00, 0x00, 0x70, 0x00, 0x00, 0x00,
  0x54, 0x00, 0x00, 0x00, 0x44, 0x00, 0x00, 0x00, 0x34, 0x00, 0x00, 0x00,
  0x24, 0x00, 0x00, 0x00, 0x14, 0x00, 0x00, 0x00, 0x04, 0x00, 0x00, 0x00,
  0xb8, 0xff, 0xff, 0xff, 0x19, 0x00, 0x00, 0x00, 0x00, 0x00, 0x00, 0x19,
  0xc4, 0xff, 0xff, 0xff, 0x09, 0x00, 0x00, 0x00, 0x00, 0x00, 0x00, 0x09,
  0xd0, 0xff, 0xff, 0xff, 0x52, 0x00, 0x00, 0x00, 0x00, 0x00, 0x00, 0x52,
  0xdc, 0xff, 0xff, 0xff, 0x11, 0x00, 0x00, 0x00, 0x00, 0x00, 0x00, 0x11,
  0xe8, 0xff, 0xff, 0xff, 0x16, 0x00, 0x00, 0x00, 0x00, 0x00, 0x00, 0x16,
  0xf4, 0xff, 0xff, 0xff, 0x03, 0x00, 0x00, 0x00, 0x00, 0x00, 0x00, 0x03,
  0x0c, 0x00, 0x0c, 0x00, 0x0b, 0x00, 0x00, 0x00, 0x00, 0x00, 0x04, 0x00,
  0x0c, 0x00, 0x00, 0x00, 0x46, 0x00, 0x00, 0x00, 0x00, 0x00, 0x00, 0x46
};
const int g_model_len = 9084;
